<unk>	0
<pad>	0
<s>	0
</s>	0
'	-3.10456
▁de	-3.19635
,	-3.29606
.	-3.61106
s	-3.66719
▁la	-3.72355
▁l	-3.96727
▁et	-3.98455
▁le	-4.17474
▁	-4.21114
▁les	-4.25262
▁à	-4.25483
▁des	-4.29471
▁d	-4.35189
▁que	-4.49485
▁en	-4.61196
▁du	-4.89875
▁dans	-5.00295
▁pour	-5.00747
▁qui	-5.10192
▁ce	-5.15609
▁nous	-5.16046
e	-5.17194
▁une	-5.21716
▁un	-5.25069
▁est	-5.30738
▁sur	-5.33377
▁au	-5.37007
▁pas	-5.38544
-	-5.41996
▁par	-5.46796
▁a	-5.47502
▁qu	-5.55425
▁ne	-5.59369
r	-5.65698
▁plus	-5.74163
est	-5.76652
▁je	-5.85558
es	-5.89231
▁n	-5.93844
▁européenne	-5.93922
▁aux	-5.95266
il	-5.96025
▁il	-5.99942
▁Je	-6.03097
Union	-6.05345
▁s	-6.06495
▁sont	-6.08487
a	-6.10049
▁Commission	-6.14092
▁c	-6.16198
▁-	-6.19185
é	-6.22828
▁Il	-6.24296
nt	-6.24474
▁avec	-6.25157
t	-6.25194
une	-6.25554
un	-6.26759
▁se	-6.27451
▁rapport	-6.29987
▁pays	-6.30664
▁(	-6.31567
▁être	-6.34858
cette	-6.36402
▁Nous	-6.37045
▁mais	-6.38894
ment	-6.39782
)	-6.40716
▁politique	-6.41187
▁Parlement	-6.41532
▁La	-6.41595
▁ces	-6.4524
▁Le	-6.45482
on	-6.4685
▁européen	-6.47104
▁États	-6.47492
▁été	-6.48697
▁ont	-6.49027
▁Monsieur	-6.4921
er	-6.5053
ai	-6.50802
▁fait	-6.51687
▁membres	-6.52367
▁C	-6.57649
▁Président	-6.57976
▁comme	-6.5805
▁tout	-6.63011
▁M	-6.64357
▁également	-6.65386
▁vous	-6.6749
▁ou	-6.68274
ant	-6.69403
▁Conseil	-6.71029
▁L	-6.7298
▁aussi	-6.73847
tte	-6.76927
▁doit	-6.77364
:	-6.77448
c	-6.78165
ons	-6.78781
▁leur	-6.79228
▁faire	-6.79886
en	-6.82036
▁entre	-6.82579
▁J	-6.83963
▁En	-6.84635
▁si	-6.85106
▁Les	-6.87603
▁tous	-6.87924
▁j	-6.88212
▁bien	-6.88245
▁son	-6.89299
notre	-6.90009
UE	-6.9145
▁très	-6.91464
y	-6.91583
▁avons	-6.9285
▁question	-6.93171
▁même	-6.95432
▁Ce	-6.96613
▁y	-6.9696
▁devons	-7.00571
u	-7.01304
▁droits	-7.04182
▁peut	-7.04399
ent	-7.05148
n	-7.05191
▁contre	-7.0941
▁développement	-7.11641
▁nos	-7.12787
Europe	-7.13486
▁économique	-7.14229
?	-7.14502
▁donc	-7.14738
▁travail	-7.15102
▁sa	-7.17378
▁marché	-7.17503
▁non	-7.18882
elle	-7.22489
▁voudrais	-7.23218
▁mesures	-7.24076
▁faut	-7.24875
▁proposition	-7.2583
▁situation	-7.26023
ra	-7.26029
▁dont	-7.26067
▁cela	-7.27332
▁soit	-7.27952
▁ainsi	-7.27962
hui	-7.28105
l	-7.28513
;	-7.29152
▁sans	-7.29414
▁me	-7.30707
▁encore	-7.32236
▁Madame	-7.32928
▁matière	-7.33317
▁pense	-7.33615
▁sécurité	-7.35063
al	-7.35289
▁ses	-7.36879
▁commission	-7.37689
▁suis	-7.37894
▁deux	-7.38103
▁cas	-7.38479
in	-7.38639
▁doivent	-7.38964
▁citoyens	-7.40232
▁important	-7.40235
▁car	-7.40371
ont	-7.40621
▁cet	-7.41779
g	-7.42441
▁m	-7.42479
▁afin	-7.42594
▁politiques	-7.44442
▁point	-7.44525
ait	-7.44566
▁leurs	-7.44839
ci	-7.45014
▁cadre	-7.45052
▁niveau	-7.45694
p	-7.46201
an	-7.46398
▁elle	-7.47419
▁où	-7.47533
▁droit	-7.48885
à	-7.49437
▁débat	-7.49978
autres	-7.49984
accord	-7.50078
ri	-7.51879
▁concerne	-7.52306
▁mon	-7.53125
▁déjà	-7.53365
▁résolution	-7.54058
ation	-7.55269
or	-7.55294
▁groupe	-7.55801
▁coopération	-7.55974
▁crise	-7.56175
▁S	-7.56521
d	-7.56883
▁manière	-7.57089
▁problème	-7.57896
i	-7.58421
▁aujourd	-7.58646
▁mise	-7.59242
f	-7.5957
és	-7.60022
▁secteur	-7.60279
▁sommes	-7.60576
▁"	-7.60602
▁parce	-7.60669
▁faveur	-7.6165
être	-7.62066
▁protection	-7.62437
ée	-7.63054
▁dire	-7.6316
▁entreprises	-7.6351
▁Europe	-7.641
re	-7.64518
▁directive	-7.6456
m	-7.6476
▁temps	-7.65152
▁personnes	-7.65518
▁sera	-7.66902
▁mettre	-7.67484
▁A	-7.68014
▁%	-7.68081
homme	-7.68221
▁domaine	-7.68685
▁re	-7.68717
▁voté	-7.69118
▁tant	-7.69192
▁concernant	-7.69236
▁système	-7.69396
ou	-7.69776
▁toute	-7.69983
▁compte	-7.70279
▁part	-7.71062
▁particulier	-7.71566
▁ré	-7.7184
agit	-7.7201
▁dit	-7.72419
▁vote	-7.72478
ti	-7.72663
ils	-7.73269
▁règlement	-7.73726
o	-7.74296
▁demande	-7.74757
▁Dan	-7.74772
▁fois	-7.75056
▁raison	-7.7571
▁possible	-7.75968
▁vue	-7.76574
▁toutes	-7.76593
▁certains	-7.76924
▁pourquoi	-7.77689
ur	-7.77691
▁devrait	-7.77928
▁accord	-7.78629
le	-7.79402
▁autres	-7.80423
▁programme	-7.80527
▁moins	-7.80903
ité	-7.81221
▁seulement	-7.81911
▁base	-7.82165
▁stratégie	-7.82179
b	-7.82305
it	-7.82372
▁on	-7.82616
▁Mme	-7.82844
▁écrit	-7.8297
▁lors	-7.83037
▁européens	-7.83255
▁budget	-7.83506
v	-7.83848
▁nécessaire	-7.84009
▁sujet	-7.84145
▁ceux	-7.84306
▁notamment	-7.84547
▁problèmes	-7.84857
▁D	-7.85254
▁respect	-7.8556
▁in	-7.86141
▁traité	-7.86264
▁exemple	-7.8627
▁femmes	-7.86797
A	-7.86959
▁rôle	-7.87317
▁place	-7.87409
▁mesure	-7.87756
z	-7.87869
▁sein	-7.88376
▁commune	-7.88643
mi	-7.89039
▁monde	-7.89137
emploi	-7.89185
▁questions	-7.90041
▁lieu	-7.90497
at	-7.90922
▁présent	-7.91171
▁gouvernement	-7.91614
au	-7.91843
ré	-7.91852
▁soutien	-7.9192
▁grande	-7.92096
▁dé	-7.92635
▁Si	-7.93436
▁nombre	-7.93801
▁Mais	-7.93934
▁p	-7.94679
▁Pour	-7.94833
▁toujours	-7.95094
▁processus	-7.95119
▁sous	-7.9512
▁prendre	-7.95312
▁nom	-7.95841
▁position	-7.96171
▁plan	-7.96338
0	-7.96406
▁objectifs	-7.96447
▁besoin	-7.96531
▁recherche	-7.96599
x	-7.96954
▁œuvre	-7.97189
▁Par	-7.97236
▁santé	-7.97311
▁sociale	-7.97735
▁soient	-7.97768
▁services	-7.97817
▁cours	-7.97825
▁avoir	-7.98295
▁beaucoup	-7.98486
▁ma	-7.98495
▁produits	-7.98746
ro	-7.9901
▁effet	-7.99752
environnement	-8.0003
▁vie	-8.00227
▁va	-8.00304
▁avant	-8.00446
▁conditions	-8.00637
▁jour	-8.00757
▁laquelle	-8.01201
énergie	-8.01481
di	-8.01501
▁partie	-8.01629
ne	-8.01661
▁fin	-8.01756
▁Cela	-8.02351
▁pouvoir	-8.03009
is	-8.03837
▁savoir	-8.04072
▁collègues	-8.05342
▁nouvelle	-8.05693
ées	-8.05698
▁propositions	-8.0598
▁région	-8.06036
▁Présidente	-8.06562
te	-8.06884
▁fonds	-8.07208
"	-8.07867
▁décision	-8.07959
▁vers	-8.08172
▁peu	-8.09085
▁P	-8.09313
▁serait	-8.09327
la	-8.09763
▁ici	-8.0979
▁garantir	-8.1007
ès	-8.11025
▁pouvons	-8.1109
▁croissance	-8.11529
▁pêche	-8.11547
ce	-8.11788
ir	-8.11843
▁peuvent	-8.12333
aide	-8.12467
▁é	-8.12484
▁B	-8.12684
▁façon	-8.13394
▁lui	-8.13574
▁contrôle	-8.13679
▁ressources	-8.13925
avenir	-8.13955
▁rapporteur	-8.14292
▁depuis	-8.14505
action	-8.14995
▁Commissaire	-8.1612
▁De	-8.16171
▁nouveau	-8.16239
▁alors	-8.16245
me	-8.16352
▁années	-8.1641
té	-8.16548
▁autre	-8.16824
ement	-8.17479
▁président	-8.1776
article	-8.17818
ar	-8.17842
aux	-8.17847
▁commissaire	-8.17855
▁millions	-8.18033
espère	-8.18136
li	-8.18145
▁f	-8.18201
▁unique	-8.18308
▁règles	-8.18611
im	-8.1983
▁était	-8.20088
▁régions	-8.20177
▁après	-8.20328
ions	-8.20418
▁bon	-8.20801
▁crois	-8.20865
▁première	-8.2122
▁nouvelles	-8.21988
ol	-8.22565
▁terme	-8.22612
▁financement	-8.22819
▁consommateurs	-8.22873
ie	-8.23298
▁lutte	-8.23354
▁principe	-8.23933
▁projet	-8.24237
▁votre	-8.24574
À	-8.24875
▁procédure	-8.25132
▁création	-8.2538
▁grand	-8.2545
▁économiques	-8.25917
▁législation	-8.26022
▁premier	-8.26225
▁nécessité	-8.26231
elles	-8.27341
▁moment	-8.27388
▁pourrait	-8.27501
EN	-8.27941
E	-8.27978
▁eu	-8.2799
▁qualité	-8.28004
particulièrement	-8.28122
▁ans	-8.28146
▁mes	-8.2849
▁bonne	-8.28531
▁plusieurs	-8.28635
▁réponse	-8.29051
▁démocratie	-8.29506
us	-8.29823
▁sens	-8.29831
▁négociations	-8.30002
▁renforcer	-8.30062
▁donné	-8.30115
▁b	-8.30146
▁ni	-8.30241
able	-8.30279
▁institutions	-8.30369
▁financière	-8.30877
5	-8.30919
el	-8.31068
▁amendements	-8.31117
▁nouveaux	-8.31174
age	-8.31236
▁autorités	-8.31751
▁Messieurs	-8.32282
▁texte	-8.32499
▁liberté	-8.32656
▁société	-8.32915
▁là	-8.33198
▁travailleurs	-8.33409
▁trois	-8.33479
▁nombreux	-8.33791
▁efforts	-8.33949
haque	-8.34183
▁accords	-8.34318
▁membre	-8.34322
k	-8.34599
aire	-8.34652
ique	-8.35031
I	-8.35153
abord	-8.35262
▁G	-8.35394
▁r	-8.35451
▁seront	-8.35527
▁soutenir	-8.35548
ordre	-8.35583
▁prix	-8.36034
▁européennes	-8.36126
▁quelques	-8.362
▁constitue	-8.36203
▁juridique	-8.36246
▁moi	-8.36273
▁voie	-8.36342
▁voir	-8.36385
h	-8.36406
▁Mesdames	-8.36484
▁clairement	-8.36785
▁celle	-8.3701
▁conséquent	-8.3743
▁donner	-8.37578
▁programmes	-8.38007
▁reste	-8.38117
ensemble	-8.38169
9	-8.38222
▁actuellement	-8.38561
▁députés	-8.38682
▁selon	-8.38732
▁surtout	-8.38808
autre	-8.38816
▁créer	-8.38837
▁F	-8.38894
▁mois	-8.39149
7	-8.39598
ch	-8.39687
▁énergétique	-8.39697
▁importante	-8.39949
▁visant	-8.40245
aient	-8.40539
qu	-8.40735
▁celui	-8.40832
▁maintenant	-8.41226
▁trop	-8.41546
économie	-8.42251
les	-8.42638
▁stabilité	-8.42656
▁gestion	-8.42696
▁T	-8.42985
ter	-8.43305
▁production	-8.43784
▁semble	-8.44361
▁face	-8.44579
▁Elle	-8.44729
▁propos	-8.44788
am	-8.45025
▁mis	-8.4508
de	-8.45148
▁Et	-8.45211
▁durable	-8.45268
▁jusqu	-8.45458
▁libre	-8.45497
▁Une	-8.45593
»	-8.45595
▁remercier	-8.45785
▁certaines	-8.45843
▁efficace	-8.46241
▁responsabilité	-8.46709
information	-8.46813
▁normes	-8.46831
▁H	-8.46976
rait	-8.4698
▁concurrence	-8.46993
vo	-8.47287
▁période	-8.47454
C	-8.47877
▁internationale	-8.47939
▁Au	-8.47995
▁chose	-8.48039
/	-8.48135
▁enfants	-8.48227
▁transport	-8.48313
2	-8.48362
application	-8.48474
▁progrès	-8.48595
end	-8.4866
▁dis	-8.49106
8	-8.49129
▁outre	-8.49307
ez	-8.49331
▁relations	-8.49375
que	-8.49491
▁souligner	-8.49935
▁Ces	-8.50145
▁projets	-8.50314
lé	-8.50314
ront	-8.50363
efficacité	-8.50699
▁égard	-8.50778
▁aucun	-8.50865
▁inter	-8.51004
1	-8.51025
▁long	-8.51135
ad	-8.51289
▁possibilité	-8.51297
▁ex	-8.51549
ac	-8.51759
lu	-8.51862
▁tiens	-8.51878
▁essentiel	-8.51915
importance	-8.5193
3	-8.51988
▁permettre	-8.52108
▁différents	-8.52151
▁sorte	-8.52235
▁mieux	-8.52769
▁domaines	-8.5283
!	-8.52848
▁données	-8.52897
▁risque	-8.53045
ig	-8.5306
▁devraient	-8.53337
4	-8.53438
▁cohésion	-8.53739
▁intérieur	-8.5398
▁Toutefois	-8.54007
▁résultats	-8.54008
▁communautaire	-8.54108
industrie	-8.5415
adoption	-8.54247
▁elles	-8.54367
▁dernier	-8.54669
▁3	-8.54806
▁souvent	-8.54836
ut	-8.55048
ot	-8.55282
▁Comme	-8.55395
ver	-8.55726
▁davantage	-8.55769
▁cause	-8.55819
▁K	-8.55865
▁trouver	-8.55931
▁1	-8.55996
▁compris	-8.56184
▁solution	-8.56255
▁public	-8.56316
▁population	-8.56542
▁voulons	-8.56689
▁pré	-8.56927
objectif	-8.56953
▁nécessaires	-8.57063
▁tiers	-8.57199
▁Fonds	-8.5729
▁pro	-8.57457
▁service	-8.57527
ance	-8.57529
▁demander	-8.57565
intérêt	-8.57709
ion	-8.58037
tre	-8.58783
om	-8.59271
État	-8.59324
▁contexte	-8.59445
▁jeunes	-8.59517
▁moyens	-8.59936
▁actuelle	-8.6002
P	-8.6036
amendement	-8.60361
▁points	-8.60586
▁mondiale	-8.60931
▁marchés	-8.6097
▁deuxième	-8.61468
▁État	-8.61842
ni	-8.62175
▁sûr	-8.62238
▁lorsque	-8.62397
▁étant	-8.62399
▁On	-8.62567
▁pu	-8.62568
▁représente	-8.62818
▁commerce	-8.63112
▁avez	-8.63186
▁intérêts	-8.63349
tion	-8.63417
▁avis	-8.63435
vi	-8.63603
▁publique	-8.63674
innovation	-8.63801
ère	-8.63881
▁taux	-8.64007
▁général	-8.64008
▁souhaite	-8.64197
▁avait	-8.6429
▁adopté	-8.64368
ale	-8.64419
▁certain	-8.64427
ici	-8.64459
▁Un	-8.64573
▁clair	-8.64644
▁aucune	-8.64957
▁g	-8.65186
▁ailleurs	-8.65232
▁ait	-8.65318
▁telle	-8.65386
▁termes	-8.65462
▁réduire	-8.65588
▁dernière	-8.65667
▁réduction	-8.65749
▁existe	-8.65812
▁Assemblée	-8.66138
pé	-8.66176
▁monétaire	-8.66255
▁moyen	-8.66346
▁nombreuses	-8.66357
adhésion	-8.66407
▁seule	-8.66548
▁chômage	-8.6656
▁titre	-8.66815
▁objectif	-8.6688
▁nationaux	-8.66968
▁social	-8.67044
▁aide	-8.67093
▁démocratique	-8.67129
▁transparence	-8.67428
Unis	-8.67537
os	-8.67783
▁difficile	-8.67877
▁lequel	-8.68202
▁Enfin	-8.68451
sse	-8.6846
ff	-8.68651
▁rien	-8.68726
eux	-8.68767
même	-8.68835
▁pris	-8.68885
6	-8.68983
intégration	-8.69235
▁convient	-8.69396
▁formation	-8.69449
▁toutefois	-8.69501
égalité	-8.6956
▁approche	-8.69603
▁décisions	-8.69776
▁aura	-8.69807
▁dispositions	-8.70062
▁relative	-8.70268
ine	-8.70815
S	-8.7091
▁international	-8.71085
ive	-8.71216
▁forme	-8.71396
▁majorité	-8.71458
02	-8.71539
lo	-8.71558
du	-8.71663
▁R	-8.71879
D	-8.72022
▁affaires	-8.72074
▁véritable	-8.72149
▁4	-8.72205
▁5	-8.72294
▁commun	-8.72373
▁juste	-8.72635
▁doute	-8.72666
▁activités	-8.72694
▁budgétaire	-8.72959
▁solidarité	-8.7329
▁paix	-8.73345
heure	-8.73366
utilisation	-8.73489
▁suite	-8.73598
▁conséquences	-8.73739
istes	-8.7393
▁quelque	-8.74113
▁nucléaire	-8.74189
ables	-8.74289
▁pauvreté	-8.74549
▁zone	-8.74582
ner	-8.7499
▁financier	-8.75034
▁simplement	-8.75111
▁répondre	-8.75128
▁frontières	-8.7514
▁systèmes	-8.75462
▁propre	-8.75781
▁agricole	-8.75893
▁réalité	-8.76073
▁national	-8.76091
ex	-8.76097
▁rendre	-8.76206
▁type	-8.76552
▁informations	-8.76588
ifi	-8.76793
▁actions	-8.77143
▁groupes	-8.7741
avoir	-8.77532
j	-8.77997
▁petites	-8.78037
▁Cependant	-8.78138
▁devrions	-8.78138
ve	-8.78452
▁culture	-8.78468
▁continuer	-8.78906
accès	-8.78939
▁procédures	-8.79192
▁entendu	-8.79584
estime	-8.79692
▁cependant	-8.79749
▁partage	-8.7977
entre	-8.79815
année	-8.79844
▁passé	-8.79862
▁tenu	-8.79869
▁comment	-8.79905
rons	-8.80046
▁année	-8.80834
▁critères	-8.8086
▁améliorer	-8.80953
▁preuve	-8.81034
agriculture	-8.81152
▁assurer	-8.81316
▁manque	-8.8133
ais	-8.81375
▁financiers	-8.81637
origine	-8.81683
▁h	-8.81827
M	-8.81846
▁aspects	-8.81847
▁raisons	-8.81955
▁contraire	-8.82043
▁2	-8.82319
▁confiance	-8.82336
▁extrêmement	-8.82396
▁rapidement	-8.82446
▁régime	-8.82534
▁principes	-8.82589
▁v	-8.82608
▁ensemble	-8.82791
isme	-8.83074
▁meilleure	-8.83089
▁Lisbonne	-8.83173
argent	-8.833
▁grâce	-8.83594
▁nationales	-8.83802
vis	-8.83873
▁vraiment	-8.83922
▁communication	-8.84124
▁victimes	-8.84244
iv	-8.84402
▁coûts	-8.84469
▁plutôt	-8.84502
▁compétitivité	-8.84563
▁changement	-8.84667
▁financières	-8.84698
objet	-8.85051
▁volonté	-8.85052
moi	-8.85315
tu	-8.85481
▁choses	-8.85492
".	-8.85604
▁signifie	-8.85619
▁font	-8.85791
&	-8.8585
gr	-8.86063
▁différentes	-8.86069
▁quand	-8.86076
▁contribuer	-8.8616
▁veiller	-8.86759
▁instruments	-8.86845
▁parties	-8.86852
▁justice	-8.86904
▁tels	-8.8695
▁présente	-8.86989
th	-8.87225
nous	-8.87737
che	-8.87916
▁sociaux	-8.88285
gi	-8.88426
▁jamais	-8.88474
investissement	-8.88571
▁promouvoir	-8.88664
▁Tout	-8.88705
▁vigueur	-8.88918
▁sociales	-8.88995
▁importance	-8.8916
▁Vous	-8.89182
initiative	-8.89196
▁propres	-8.89229
▁publics	-8.89268
em	-8.89418
▁eux	-8.89427
▁co	-8.89499
id	-8.89508
▁2009	-8.89564
▁puisse	-8.89627
▁dernières	-8.89918
tra	-8.90163
▁dialogue	-8.90327
▁chers	-8.90347
▁soumis	-8.90392
intention	-8.90525
▁oeuvre	-8.90564
eurs	-8.90707
ins	-8.90804
▁réforme	-8.90857
▁parler	-8.91097
▁vu	-8.91148
ui	-8.91227
▁présidence	-8.91235
échange	-8.91328
avons	-8.91416
▁gouvernements	-8.91479
▁pendant	-8.91495
▁gouvernance	-8.91498
iques	-8.91728
▁lorsqu	-8.91857
▁compromis	-8.91887
▁contribution	-8.92024
▁quel	-8.92174
▁produit	-8.92341
▁20	-8.92408
▁traitement	-8.92643
▁mécanisme	-8.92755
▁coût	-8.92845
▁Cour	-8.92888
▁protéger	-8.93074
▁tel	-8.9316
▁celles	-8.93195
▁pratique	-8.93261
▁appelle	-8.93471
▁voter	-8.9353
éducation	-8.93539
▁euro	-8.93832
▁but	-8.93994
▁seul	-8.9403
▁Communauté	-8.94073
▁Présidence	-8.9414
ob	-8.94517
▁générale	-8.95136
▁savons	-8.95165
▁civile	-8.95173
▁emplois	-8.95372
▁document	-8.95716
ue	-8.95718
assurer	-8.95887
O	-8.95949
▁vrai	-8.96085
▁considération	-8.96102
ge	-8.96237
▁considère	-8.96582
▁fond	-8.96664
aires	-8.96775
▁enfin	-8.9678
▁collègue	-8.96898
eur	-8.9702
▁Turquie	-8.97063
▁8	-8.97079
op	-8.97085
▁parti	-8.97093
▁trouve	-8.97272
▁fort	-8.97382
iser	-8.97475
▁travers	-8.97478
▁priorités	-8.97501
▁relatives	-8.97506
▁porte	-8.98108
▁an	-8.98162
▁convention	-8.98247
▁défense	-8.98383
▁participation	-8.98383
▁coordination	-8.98523
▁instrument	-8.98584
▁attention	-8.98661
▁aider	-8.98845
▁parole	-8.98976
▁aurait	-8.98992
urgence	-8.99014
▁V	-8.99075
▁fondamentaux	-8.99084
ux	-8.99188
BC	-8.99214
▁déchets	-8.99225
▁vis	-8.99535
pi	-8.99536
DE	-8.99606
ations	-8.99703
ma	-8.99834
▁pression	-8.99933
▁mondial	-8.99982
▁déclaration	-8.99994
▁dépenses	-9.00105
▁large	-9.00203
▁partenariat	-9.00217
▁transports	-9.00341
▁paragraphe	-9.00356
▁Russie	-9.0036
▁demandé	-9.00431
▁féliciter	-9.00744
▁loi	-9.00867
B	-9.00912
tant	-9.00936
comp	-9.00949
▁prise	-9.00966
▁début	-9.01012
▁dés	-9.01099
▁quant	-9.01155
euros	-9.01212
▁réjouis	-9.01219
gu	-9.0128
▁conférence	-9.01435
▁valeur	-9.01455
▁présenté	-9.01474
▁importants	-9.01474
▁permettant	-9.01591
iste	-9.01599
▁zones	-9.01897
▁propose	-9.02278
né	-9.02297
▁Nord	-9.02384
égard	-9.02388
▁tenir	-9.02522
▁priorité	-9.02644
ailleurs	-9.02945
▁rappeler	-9.02991
▁Bien	-9.03035
#	-9.03106
▁telles	-9.0312
ta	-9.03187
occasion	-9.0328
▁côté	-9.03327
rer	-9.03338
▁potentiel	-9.034
▁appel	-9.03417
nce	-9.03492
▁surveillance	-9.03549
▁demain	-9.0355
imp	-9.03593
▁résultat	-9.0362
▁prises	-9.03797
▁devant	-9.0381
▁remercie	-9.03917
▁réglementation	-9.03935
▁renforcement	-9.04032
oc	-9.04049
ab	-9.04086
eau	-9.04222
ienne	-9.04607
▁centrale	-9.04636
▁discussion	-9.04917
▁19	-9.05027
▁2010	-9.05074
▁absolument	-9.05105
▁forte	-9.05175
avis	-9.05375
▁fonction	-9.0548
▁établi	-9.05668
▁fourni	-9.05692
ic	-9.06158
▁respecter	-9.06546
▁autant	-9.06576
▁développer	-9.06651
▁10	-9.06662
attention	-9.06766
▁fonctionnement	-9.06771
▁permet	-9.06906
▁mot	-9.0695
▁indispensable	-9.06992
mp	-9.07042
▁partis	-9.07105
▁meilleur	-9.07162
ise	-9.0722
dire	-9.07271
isation	-9.07324
▁simple	-9.07437
▁violence	-9.07483
va	-9.07768
▁difficultés	-9.0778
▁présenter	-9.0779
▁organisations	-9.07869
▁apporter	-9.08028
▁exige	-9.08144
▁permettra	-9.08348
était	-9.084
▁humanitaire	-9.0845
▁climatique	-9.08588
▁élections	-9.08614
str	-9.08622
idée	-9.08767
ification	-9.08867
▁réunion	-9.08867
▁donne	-9.09177
▁9	-9.09183
▁mi	-9.09189
▁investissements	-9.09349
▁2011	-9.0946
▁mer	-9.09579
et	-9.09589
▁possibilités	-9.09636
▁personne	-9.09694
▁Nations	-9.09708
▁procès	-9.09851
vous	-9.10032
▁Des	-9.10129
▁Or	-9.10242
ière	-9.10351
▁veut	-9.10481
▁uniquement	-9.10508
▁certainement	-9.10803
▁mal	-9.10904
▁valeurs	-9.10933
▁vise	-9.11076
as	-9.1109
▁PME	-9.11344
▁partenaires	-9.11366
▁territoire	-9.11432
▁élevé	-9.11607
ud	-9.11637
▁ch	-9.11666
▁réalisé	-9.11752
▁2020	-9.11801
▁particulière	-9.12207
▁besoins	-9.12286
▁hommes	-9.12385
um	-9.1239
▁N	-9.12473
obligation	-9.12597
▁compétences	-9.12715
▁pleinement	-9.12777
▁révision	-9.12876
G	-9.12885
▁lutter	-9.13128
▁réellement	-9.13158
▁conclusion	-9.13462
▁résoudre	-9.13488
▁jouer	-9.136
nes	-9.13644
▁fi	-9.13672
▁éléments	-9.13737
▁tourisme	-9.14027
▁profit	-9.1407
▁rend	-9.14151
N	-9.14205
améliorer	-9.14209
▁peuple	-9.14216
aimerais	-9.14259
▁utile	-9.14259
ure	-9.14296
emplois	-9.14331
ateurs	-9.1439
▁initiatives	-9.14543
ba	-9.14585
▁suivi	-9.1467
▁modèle	-9.14752
▁E	-9.14905
▁6	-9.15178
▁promotion	-9.15247
▁précisément	-9.15247
▁gens	-9.15252
▁grave	-9.15331
gouvernementale	-9.15383
▁ministre	-9.15397
▁alimentaire	-9.154
▁puissent	-9.15427
évaluation	-9.15548
▁secteurs	-9.15606
▁pratiques	-9.15634
▁charge	-9.15653
▁permis	-9.15746
▁action	-9.15835
▁défis	-9.15988
▁étaient	-9.16035
man	-9.16117
▁mort	-9.16163
▁déc	-9.16207
organisation	-9.16276
ép	-9.16368
▁stratégique	-9.16412
▁force	-9.16423
na	-9.16495
▁éviter	-9.16714
▁importantes	-9.1673
▁Schengen	-9.16832
▁moyennes	-9.16906
▁exprimé	-9.1717
▁quatre	-9.17171
▁proposé	-9.17285
▁grandes	-9.17375
par	-9.17375
▁ra	-9.17443
IT	-9.17576
▁capacité	-9.17726
T	-9.17776
▁fa	-9.17959
▁peux	-9.18009
▁conclu	-9.18039
▁soi	-9.18051
ler	-9.18103
▁aérien	-9.18273
▁économies	-9.18582
▁menace	-9.18784
▁taxe	-9.19302
▁prochaine	-9.19412
▁rapports	-9.19658
▁loin	-9.19731
R	-9.19776
▁retard	-9.19818
▁000	-9.19906
▁actuel	-9.20056
▁initiative	-9.20096
▁sommet	-9.20134
▁troisième	-9.20175
▁constituent	-9.20471
▁construction	-9.20601
▁travailler	-9.20911
▁pacte	-9.21138
use	-9.21262
▁défini	-9.2129
tes	-9.2144
▁dois	-9.21518
▁producteurs	-9.21616
▁coup	-9.21755
▁30	-9.21794
▁médicaments	-9.21821
▁12	-9.21855
▁positive	-9.21919
▁pourraient	-9.2194
▁spécifiques	-9.22108
▁tour	-9.22194
▁conséquence	-9.22253
lect	-9.2229
▁monnaie	-9.22363
co	-9.22374
▁W	-9.22407
▁félicite	-9.22418
hi	-9.22563
euro	-9.22571
▁faible	-9.22608
▁adopter	-9.22609
approuve	-9.22791
▁niveaux	-9.22923
▁décidé	-9.23059
▁longtemps	-9.2308
état	-9.23288
▁près	-9.23297
amélioration	-9.23428
▁unies	-9.23478
▁soutiens	-9.23521
▁réfugiés	-9.23593
▁conforméme	-9.23614
▁fournir	-9.23625
▁responsables	-9.2367
▁référence	-9.23704
▁rapide	-9.23717
▁solutions	-9.23745
▁série	-9.23771
vé	-9.23781
▁pourra	-9.23793
▁milliards	-9.23932
▁favorable	-9.24022
▁totalement	-9.24262
ing	-9.24274
▁puis	-9.24518
▁chacun	-9.24519
cul	-9.24523
▁évident	-9.24791
lant	-9.24989
U	-9.25009
▁circulation	-9.25064
▁passer	-9.25093
▁comptes	-9.25136
▁venir	-9.25199
▁exigences	-9.25353
▁parvenir	-9.25405
urs	-9.25453
▁grands	-9.25508
all	-9.25565
▁peine	-9.25706
impact	-9.25736
▁mandat	-9.25797
▁britannique	-9.25981
▁guerre	-9.26073
▁vert	-9.2611
absence	-9.26165
▁tard	-9.2617
nant	-9.26207
w	-9.26276
▁tâche	-9.26443
▁agriculteurs	-9.26446
▁réformes	-9.26452
▁direction	-9.26501
▁communauté	-9.26634
▁contenu	-9.26721
20	-9.26751
asile	-9.2682
▁extérieure	-9.26826
▁République	-9.27093
▁trans	-9.27196
▁choix	-9.27466
▁poursuivre	-9.27466
▁occasion	-9.27526
verbal	-9.2756
▁constater	-9.27741
ier	-9.27763
▁nucléaires	-9.27798
▁structurels	-9.27936
▁condition	-9.28061
if	-9.28071
▁15	-9.28362
▁dossier	-9.28406
▁Etats	-9.28416
cti	-9.28473
▁inc	-9.28479
▁publiques	-9.28554
tons	-9.28574
cadre	-9.28576
Uni	-9.2858
ga	-9.28617
▁prochain	-9.28661
▁malheureusement	-9.28784
▁Chine	-9.28784
▁longue	-9.28827
▁lesquels	-9.28879
è	-9.28978
élargissement	-9.28989
▁ayant	-9.29109
ard	-9.29256
▁budgétaires	-9.29268
▁devoir	-9.29478
▁rester	-9.29645
▁Sud	-9.297
pe	-9.29884
▁commencer	-9.29923
▁consiste	-9.30046
▁événements	-9.30127
ble	-9.3018
▁met	-9.30191
ll	-9.30346
▁désormais	-9.30407
▁connaissance	-9.30408
ante	-9.30474
▁po	-9.30664
▁travaux	-9.3089
▁sais	-9.30934
pri	-9.31244
▁7	-9.31287
▁réalisation	-9.31495
▁responsable	-9.31899
▁comprendre	-9.31934
euse	-9.31961
ouverture	-9.31974
▁étrangère	-9.32001
▁évidemment	-9.32058
▁Royaume	-9.32156
vent	-9.32224
Assemblée	-9.32382
▁élément	-9.32421
▁France	-9.3245
▁lecture	-9.3255
isé	-9.32561
▁nature	-9.32768
▁devra	-9.32794
▁vient	-9.32893
▁discrimination	-9.32962
▁participer	-9.33036
▁semaine	-9.33111
isant	-9.33124
F	-9.33152
â	-9.33325
▁derniers	-9.33369
▁internationales	-9.33485
▁quoi	-9.3361
▁réseaux	-9.33658
isée	-9.33806
ssent	-9.33851
▁quelle	-9.33917
alité	-9.34422
▁risques	-9.34713
▁jours	-9.34783
▁importe	-9.35038
▁ensuite	-9.35039
▁législatif	-9.35241
▁message	-9.35245
▁comité	-9.3526
▁puisque	-9.35302
mo	-9.35333
arr	-9.35432
esprit	-9.35833
▁globale	-9.35977
si	-9.36033
▁statut	-9.36081
▁effets	-9.36108
▁humaine	-9.36151
▁soins	-9.36167
▁Voilà	-9.36257
lement	-9.36272
▁passe	-9.36276
",	-9.36285
aujourd	-9.36337
▁réaliser	-9.36461
▁train	-9.36463
▁analyse	-9.36528
▁genre	-9.36563
ord	-9.36645
▁pl	-9.36665
▁tirer	-9.36667
▁séance	-9.36769
ph	-9.36825
▁Notre	-9.36984
▁prévu	-9.37282
▁tr	-9.37304
for	-9.37343
opinion	-9.37349
▁professionnelle	-9.37453
▁décembre	-9.37489
▁fondamental	-9.37609
▁haute	-9.37623
).	-9.37788
▁changements	-9.37907
CE	-9.37916
▁effectivement	-9.37954
out	-9.37976
▁relatif	-9.37999
exécution	-9.38007
▁alimentaires	-9.3803
▁futur	-9.38079
▁accepter	-9.38171
▁lesquelles	-9.38216
▁plupart	-9.38319
▁médias	-9.38528
▁montant	-9.38609
▁main	-9.3862
cu	-9.38621
port	-9.38631
▁succès	-9.38633
je	-9.38743
▁Grèce	-9.38842
▁supplémentaires	-9.38904
▁soutenu	-9.38935
▁techniques	-9.39003
ide	-9.39053
▁garantie	-9.39117
▁vos	-9.39175
▁atteindre	-9.39259
établissement	-9.39269
ali	-9.39287
▁communautaires	-9.39432
▁agricoles	-9.39447
▁allons	-9.39475
entrée	-9.39504
équilibre	-9.39526
▁contrôles	-9.39572
▁prévention	-9.39578
▁per	-9.39672
Allemagne	-9.39684
échelle	-9.39685
▁fiscale	-9.39761
▁disposition	-9.39822
encontre	-9.39867
▁amendement	-9.39969
pa	-9.39975
▁continue	-9.40106
▁maintenir	-9.4032
and	-9.40355
▁vont	-9.40438
▁pa	-9.4045
▁personnel	-9.40473
▁accès	-9.40535
▁augmentation	-9.40559
▁positif	-9.40592
▁conclure	-9.40608
app	-9.40668
▁représentants	-9.40676
to	-9.40687
▁graves	-9.40851
▁fixé	-9.40854
ifs	-9.40887
▁souligne	-9.4126
▁suffisamment	-9.41389
▁nationale	-9.41424
▁I	-9.41487
▁principaux	-9.41496
ren	-9.41574
),	-9.41628
oul	-9.417
▁déclaré	-9.41917
exploitation	-9.41925
▁sanctions	-9.41999
▁adoptée	-9.42007
▁commerciales	-9.42039
▁mener	-9.42064
▁implique	-9.42106
od	-9.42123
▁total	-9.42163
exercice	-9.42218
éc	-9.42418
▁évaluation	-9.42509
▁rec	-9.42606
▁prévoit	-9.42687
examen	-9.42752
▁démocratiques	-9.42777
▁encourager	-9.42865
▁responsabilités	-9.42998
▁approuvé	-9.43024
▁mission	-9.4304
ê	-9.43073
introduction	-9.43123
▁capital	-9.43145
ative	-9.43226
adresse	-9.43253
▁récemment	-9.43342
▁ministres	-9.43363
▁réussi	-9.43485
▁faciliter	-9.43702
▁no	-9.43744
▁divers	-9.43786
00	-9.43925
▁rapporteure	-9.44068
▁modification	-9.44151
▁discussions	-9.4428
▁certaine	-9.44632
▁technique	-9.44717
L	-9.44719
ns	-9.4476
ha	-9.44851
▁engagement	-9.45138
▁Traité	-9.45335
delà	-9.45343
▁assez	-9.45447
▁déposé	-9.4567
▁parle	-9.4569
▁heures	-9.45745
▁fil	-9.45923
▁liste	-9.45962
▁détail	-9.46008
née	-9.4605
▁mentionné	-9.46184
non	-9.46216
▁cinq	-9.46241
V	-9.46243
▁11	-9.46416
union	-9.46416
histoire	-9.46458
▁centrales	-9.4655
▁accompli	-9.46565
▁obtenu	-9.46573
enfant	-9.46668
écus	-9.46768
▁haut	-9.46804
iers	-9.46855
▁su	-9.46885
▁conclusions	-9.46887
▁Deuxièmement	-9.47051
activité	-9.47059
opposition	-9.47139
▁défi	-9.47382
▁malgré	-9.47397
▁industrielle	-9.47465
▁suivre	-9.47481
▁obtenir	-9.47557
▁Cet	-9.47575
▁procéder	-9.47976
▁montre	-9.48184
ca	-9.48186
▁critique	-9.48199
▁répond	-9.48255
▁créé	-9.48319
▁port	-9.4832
▁exercice	-9.48435
▁thème	-9.48515
ois	-9.48562
res	-9.48765
élaboration	-9.48768
▁caractère	-9.48861
▁rendu	-9.48877
▁aspect	-9.48896
▁régionale	-9.48952
▁collaboration	-9.48991
ujourd	-9.49029
▁atteint	-9.49094
▁bénéficier	-9.49214
▁forces	-9.49312
▁dimension	-9.49442
▁étape	-9.49442
▁voix	-9.49442
▁six	-9.49461
▁évoqué	-9.49462
▁directement	-9.49554
▁faisant	-9.49563
Italie	-9.49571
▁hongroise	-9.49797
tent	-9.49887
▁paquet	-9.49909
▁ligne	-9.50104
▁réelle	-9.50223
▁maladie	-9.50225
▁sérieux	-9.50276
accent	-9.50379
rie	-9.50409
▁locales	-9.50432
▁privé	-9.50474
art	-9.50497
qui	-9.50554
».	-9.50657
▁suivante	-9.50713
ap	-9.50716
harmonisation	-9.50732
▁signal	-9.50753
ger	-9.5077
▁estime	-9.50778
▁décharge	-9.5085
onne	-9.5093
▁reçu	-9.50968
▁prend	-9.5099
▁souligné	-9.51059
▁maintien	-9.51093
▁commerciaux	-9.51205
après	-9.51497
▁équitable	-9.5168
▁excellent	-9.51714
chez	-9.51717
▁annuel	-9.51759
▁intervention	-9.51795
Irlande	-9.5191
▁défendre	-9.51983
▁résolu	-9.5202
▁technologies	-9.52047
▁liés	-9.52089
▁poser	-9.52213
▁claire	-9.52218
▁retraite	-9.52325
▁Ma	-9.52618
ché	-9.52629
ori	-9.5278
▁Ils	-9.52825
engagement	-9.5284
▁clos	-9.52894
▁convaincu	-9.52927
▁actes	-9.52971
▁fer	-9.53188
immigration	-9.53241
▁essentielle	-9.53353
▁déficit	-9.53362
▁agir	-9.53508
▁banques	-9.53556
mêmes	-9.53572
▁semaines	-9.53641
▁utilisé	-9.53788
▁engagements	-9.53942
▁maritime	-9.54213
▁obligatoire	-9.54213
▁court	-9.54251
indépendance	-9.54266
H	-9.54348
▁savez	-9.54511
der	-9.54535
▁conflit	-9.55033
enseignement	-9.55164
▁partir	-9.55189
▁Sur	-9.55381
▁inacceptable	-9.55443
raient	-9.555
▁structure	-9.55529
▁avantages	-9.55567
▁recommandations	-9.55585
lle	-9.55607
▁judiciaire	-9.5569
▁pouvoirs	-9.55841
▁favoriser	-9.55939
éviter	-9.55988
▁juridiques	-9.56228
▁trafic	-9.56312
▁parlementaire	-9.56319
▁considérable	-9.56341
ho	-9.56418
▁ferme	-9.56556
▁traite	-9.56657
▁Roumanie	-9.56687
▁ba	-9.56733
▁définir	-9.56835
▁déclarations	-9.56838
▁définition	-9.56839
▁adéquate	-9.5686
Afrique	-9.57004
▁perspective	-9.57204
▁majeur	-9.57253
▁étrangères	-9.57262
▁centre	-9.57337
▁25	-9.57494
bo	-9.57546
▁délégation	-9.57568
▁internationaux	-9.57568
do	-9.57575
▁mobilité	-9.57694
▁populations	-9.57721
▁patients	-9.58019
▁montrer	-9.58117
▁agences	-9.58346
fin	-9.58399
▁phase	-9.58584
▁économie	-9.58648
expression	-9.58711
espoir	-9.58711
▁efficaces	-9.58716
▁principal	-9.58752
▁juin	-9.5884
▁Sel	-9.58897
adopter	-9.58934
▁permettez	-9.58979
▁émissions	-9.58988
augmentation	-9.59063
cé	-9.59071
▁parfaitement	-9.59103
intervention	-9.5932
▁concitoyens	-9.59352
▁13	-9.59409
▁utiliser	-9.5954
▁yeux	-9.59592
▁ad	-9.59844
▁libéralisation	-9.59876
▁aller	-9.59887
▁pilier	-9.59999
▁salue	-9.6014
▁représentent	-9.60255
▁fraude	-9.60257
▁présence	-9.60257
▁dix	-9.60293
▁introduit	-9.60387
évolution	-9.60477
▁crédits	-9.60533
▁veux	-9.60555
▁départ	-9.60647
▁lignes	-9.60693
▁janvier	-9.60777
▁connu	-9.60777
▁sources	-9.608
▁reconnaître	-9.60807
▁recours	-9.60909
▁offre	-9.60921
▁dispose	-9.60941
▁culturel	-9.6096
▁Permettez	-9.61169
▁parfois	-9.61301
▁catastrophe	-9.61423
pprovisionnement	-9.61432
▁Conférence	-9.61432
▁sociétés	-9.61501
tour	-9.61511
▁Malheureusement	-9.61695
▁veulent	-9.61695
▁appropriée	-9.61819
▁1996	-9.61958
▁mondialisation	-9.6198
▁danger	-9.6207
▁intérêt	-9.6211
▁auquel	-9.62224
instrument	-9.62232
▁fais	-9.62249
▁Banque	-9.62355
▁final	-9.62356
▁passagers	-9.6236
▁faudrait	-9.62388
▁clause	-9.62488
▁conforme	-9.62488
▁note	-9.62493
▁rappelle	-9.62624
▁culturelle	-9.62747
▁reconnaissance	-9.62754
▁largement	-9.62799
▁mécanismes	-9.62861
▁préoccupations	-9.62862
▁gaz	-9.62888
ind	-9.6296
▁néanmoins	-9.6302
▁précédent	-9.6318
▁mérite	-9.63225
▁pourtant	-9.63361
▁budgets	-9.63518
▁pose	-9.63518
abilité	-9.63551
▁animaux	-9.63678
▁exprimer	-9.63694
▁proposer	-9.63757
▁envers	-9.63764
▁mêmes	-9.638
existence	-9.63888
▁consultation	-9.63958
▁efficacement	-9.64094
▁devenir	-9.64231
▁pourrons	-9.64321
▁conseil	-9.64364
▁obligations	-9.64424
▁Croatie	-9.64499
▁posé	-9.64557
▁interne	-9.6457
▁pensons	-9.64675
per	-9.64679
nent	-9.64758
▁populaire	-9.6477
▁modifier	-9.64879
▁18	-9.65103
ssant	-9.6525
▁disposer	-9.65349
▁pourront	-9.65524
▁commercial	-9.65642
▁Japon	-9.65725
▁conscience	-9.65862
▁délai	-9.65916
▁renouvelables	-9.66091
▁législative	-9.66253
appliquer	-9.66254
▁naturellement	-9.66323
près	-9.66348
▁servir	-9.66406
▁spécifique	-9.66504
▁mode	-9.6659
dre	-9.66604
▁aient	-9.66732
ateur	-9.66752
▁lumière	-9.66828
▁accepté	-9.66865
▁revêt	-9.66966
▁mai	-9.66968
▁aides	-9.66982
nement	-9.67085
▁sait	-9.67102
engager	-9.6722
▁compétence	-9.67243
▁précis	-9.67261
isent	-9.67363
▁libertés	-9.67477
▁champ	-9.67523
▁convergence	-9.67663
▁rural	-9.67797
espace	-9.67902
▁bonnes	-9.67929
▁Mon	-9.67933
▁dépend	-9.67942
nelle	-9.67957
▁emploi	-9.68006
og	-9.68045
▁concentrer	-9.68184
▁sensible	-9.68223
accident	-9.68223
ages	-9.68239
▁Portugal	-9.68364
▁échanges	-9.68442
Agence	-9.68505
▁état	-9.68657
▁député	-9.6868
▁heureux	-9.68787
▁menée	-9.68852
▁14	-9.68927
▁session	-9.68947
apport	-9.68979
▁17	-9.68999
▁mars	-9.69298
▁décider	-9.69329
aï	-9.69345
▁Néanmoins	-9.69354
▁regard	-9.69354
entreprise	-9.6943
ouvrir	-9.69536
▁supplémentaire	-9.69554
▁civil	-9.69739
▁technologique	-9.69781
observ	-9.69784
▁concept	-9.69832
▁impossible	-9.70067
▁compar	-9.70075
▁date	-9.70086
▁réaction	-9.7028
▁prêts	-9.70287
▁auto	-9.70297
agir	-9.7034
▁peuples	-9.70717
▁Européens	-9.70735
▁lien	-9.7078
▁effectué	-9.70786
iens	-9.7102
▁consommation	-9.71089
▁anti	-9.71113
arrêt	-9.71124
▁avancée	-9.71169
▁considérer	-9.7122
▁raisonnable	-9.7122
▁souhait	-9.71247
▁précise	-9.71314
approche	-9.7137
chi	-9.71465
▁fl	-9.71481
▁traiter	-9.71502
PT	-9.71606
▁active	-9.71635
▁auxquels	-9.71655
▁concrètes	-9.71879
▁réel	-9.7191
▁Libye	-9.72092
▁laisser	-9.72101
▁crédit	-9.7222
▁recommandation	-9.72234
▁consensus	-9.72238
▁nouvel	-9.72278
▁global	-9.72346
▁financer	-9.72385
▁terre	-9.72451
Organisation	-9.72531
▁montré	-9.72532
▁concernés	-9.72596
interdiction	-9.72678
avance	-9.72824
▁citoyen	-9.7284
▁reconnu	-9.72972
▁complexe	-9.73267
▁mouvement	-9.73267
▁conflits	-9.73315
Ukraine	-9.73415
▁protocole	-9.73415
▁joue	-9.73422
▁renforcée	-9.73554
▁paiement	-9.73582
▁perspectives	-9.73844
▁fera	-9.73867
▁seraient	-9.73969
▁transition	-9.74022
▁retour	-9.74068
▁clé	-9.74132
atif	-9.74281
▁application	-9.74286
▁américain	-9.74341
▁liées	-9.74483
▁régional	-9.74591
exclusion	-9.74647
▁consommateur	-9.75265
▁avaient	-9.75295
▁scientifiques	-9.75354
▁télé	-9.7536
âge	-9.7538
▁suivant	-9.75382
▁O	-9.75393
▁chance	-9.7546
▁direct	-9.75504
▁approprié	-9.75518
▁discuter	-9.75613
administration	-9.75624
atrice	-9.75682
ES	-9.75686
mer	-9.7581
▁touché	-9.75813
▁mauvaise	-9.75885
▁désir	-9.75891
▁marque	-9.75974
▁obstacles	-9.75984
▁traités	-9.76093
▁entièrement	-9.76096
▁livre	-9.7615
▁irlandaise	-9.76247
▁évolution	-9.76282
mment	-9.7635
no	-9.76398
nation	-9.76419
▁bou	-9.76451
▁limite	-9.76542
▁1995	-9.76574
▁viol	-9.76663
▁Ashton	-9.76726
▁strict	-9.76747
▁fondée	-9.76801
▁Bruxelles	-9.7688
▁humains	-9.76889
▁principalement	-9.77015
▁parlons	-9.77039
▁acteurs	-9.77069
▁outil	-9.77407
da	-9.77427
▁viande	-9.77495
▁demandons	-9.77525
▁affaire	-9.77543
▁correctement	-9.7759
▁catégorie	-9.77803
▁terrorisme	-9.77803
▁disponibles	-9.77816
▁source	-9.77931
ach	-9.7806
io	-9.78189
existe	-9.78205
▁souhaiterais	-9.78282
▁future	-9.78284
▁vaste	-9.78287
▁milliers	-9.78424
▁Roms	-9.78426
atoire	-9.78463
▁premières	-9.7859
▁40	-9.78604
▁devront	-9.78742
▁négociation	-9.78745
▁structures	-9.7877
▁II	-9.78772
▁Ne	-9.78831
▁parlé	-9.78865
▁Ainsi	-9.78892
▁augmenter	-9.79006
▁faudra	-9.7901
▁normal	-9.79037
▁scientifique	-9.7921
▁catastrophes	-9.79216
▁courage	-9.79222
▁San	-9.79282
▁commerciale	-9.79375
▁abordé	-9.79443
▁complète	-9.7951
▁durée	-9.796
▁informé	-9.79665
▁historique	-9.79677
▁démontre	-9.79677
▁phénomène	-9.79677
▁transactions	-9.79678
▁fondamentales	-9.79686
ia	-9.79718
▁indiqué	-9.79835
▁contact	-9.79835
▁oublier	-9.79836
▁lancé	-9.7984
▁faisons	-9.79975
▁limiter	-9.80128
▁récente	-9.80128
▁reprises	-9.80155
▁confrontés	-9.80177
été	-9.80277
▁sentiment	-9.80309
Espagne	-9.80468
▁contient	-9.80468
ême	-9.80561
▁Tr	-9.80562
OMC	-9.80627
ajustement	-9.80627
▁pied	-9.80627
▁accorder	-9.80737
▁Elles	-9.80765
▁extérieures	-9.80776
▁facile	-9.80779
démocrat	-9.80784
▁Merci	-9.80788
▁tendance	-9.80795
▁comporte	-9.80939
▁appliquer	-9.81041
▁réseau	-9.81073
▁légale	-9.81092
oi	-9.81105
▁campagne	-9.81106
▁réserve	-9.81163
▁examiner	-9.81209
▁expérience	-9.81265
▁presse	-9.81268
▁br	-9.81364
▁violations	-9.8138
gue	-9.81424
▁voyage	-9.81426
expérience	-9.81427
▁col	-9.81435
pre	-9.8144
autorité	-9.81554
▁Premièrement	-9.81586
▁stade	-9.81588
▁infrastructures	-9.81617
association	-9.81711
▁réflexion	-9.81747
▁équilibre	-9.81826
exprimer	-9.81873
▁formes	-9.81887
▁ambitieux	-9.81908
▁novembre	-9.81908
▁Après	-9.81963
▁famille	-9.81985
▁soir	-9.82019
▁rapporteurs	-9.82069
ssons	-9.82073
RO	-9.82097
▁environnemental	-9.8217
▁perdu	-9.82226
▁consacré	-9.82231
▁flexibilité	-9.82231
bu	-9.82317
égal	-9.82368
▁énorme	-9.82399
▁aborder	-9.82504
▁corruption	-9.82555
▁minimum	-9.82555
Le	-9.82862
▁100	-9.83039
▁applicable	-9.83043
▁assuré	-9.83043
▁intéressant	-9.83043
▁durant	-9.83134
lic	-9.83138
▁modifications	-9.83148
ber	-9.83165
▁transfert	-9.83206
▁fondamentale	-9.83241
▁certes	-9.83374
▁accrue	-9.83382
▁fonctionne	-9.83617
▁considéré	-9.83628
▁puisqu	-9.83674
affaire	-9.83729
▁orientations	-9.83729
▁demandes	-9.83791
▁compétent	-9.83861
▁attitude	-9.83992
▁1997	-9.84025
▁climat	-9.84062
▁majeure	-9.84108
▁relatifs	-9.84203
▁vertu	-9.84226
intérieur	-9.84226
▁27	-9.84286
▁militaire	-9.84328
▁ta	-9.84342
▁contraignant	-9.84355
▁2008	-9.84374
▁Alors	-9.84522
▁réuni	-9.84659
▁route	-9.84691
vit	-9.84705
approbation	-9.84845
ESB	-9.84865
▁Tunisie	-9.85018
Orient	-9.85019
▁tests	-9.85157
▁garanties	-9.85172
▁Bulgarie	-9.85184
▁préparation	-9.85184
obtenir	-9.85251
▁figure	-9.85323
mon	-9.85351
▁hausse	-9.85351
informations	-9.85367
▁voisins	-9.85532
up	-9.85549
▁entend	-9.85644
extérieur	-9.85673
▁constituer	-9.85675
▁légitime	-9.85685
▁chemin	-9.85688
▁pauvres	-9.85853
▁préalable	-9.86021
▁communes	-9.86021
rit	-9.86143
▁porter	-9.86256
▁parlementaires	-9.86378
▁prétend	-9.86453
▁double	-9.86527
▁continu	-9.8657
▁repose	-9.86571
▁invite	-9.86584
▁immédiatement	-9.86626
▁réside	-9.86685
▁Qu	-9.86691
▁empêcher	-9.86723
▁presque	-9.86864
▁changer	-9.86925
▁avenir	-9.86927
▁conjoint	-9.87033
▁trouvé	-9.87163
▁logique	-9.87205
▁chiffres	-9.87284
▁50	-9.8745
he	-9.87596
mar	-9.87634
▁voire	-9.87678
▁brevet	-9.87714
▁matin	-9.87717
▁justement	-9.87729
▁2012	-9.87885
▁solide	-9.87894
▁présentée	-9.8791
▁rencontre	-9.87931
▁évidence	-9.8794
▁intégrée	-9.8796
▁écologique	-9.88056
impression	-9.884
PL	-9.88433
ose	-9.8856
▁idées	-9.88625
lit	-9.88698
▁préserver	-9.88744
▁regrette	-9.88794
▁revenus	-9.88817
▁subi	-9.88931
rou	-9.88939
▁essentiellement	-9.89016
▁profiter	-9.89146
▁limites	-9.89152
▁16	-9.89328
▁déterminer	-9.89329
▁ouvert	-9.89372
▁contrôler	-9.8944
hé	-9.89454
▁PAC	-9.89611
▁ouverte	-9.89734
▁Pourquoi	-9.89785
▁table	-9.89821
▁appliquée	-9.89916
▁crédibilité	-9.89959
▁espérons	-9.89959
▁moindre	-9.89959
▁touche	-9.8996
▁Car	-9.89968
▁petits	-9.9
▁Que	-9.90117
▁sol	-9.90196
viendra	-9.90287
▁police	-9.9031
▁relance	-9.9031
▁opposé	-9.90485
▁différences	-9.90708
dit	-9.90714
▁élu	-9.90793
antes	-9.90827
assurance	-9.90837
▁2013	-9.90837
▁directives	-9.90847
▁nécessite	-9.90862
▁proche	-9.90893
▁Livre	-9.91013
▁privée	-9.91018
accompagne	-9.9119
▁acte	-9.91363
tal	-9.91432
▁Hongrie	-9.91544
▁statistiques	-9.91657
▁visa	-9.91678
▁documents	-9.91839
▁finalement	-9.91843
▁vision	-9.92047
▁Depuis	-9.92078
▁Méditerranée	-9.92078
▁voisinage	-9.92078
▁Verts	-9.92078
▁ajoutée	-9.92079
Est	-9.92099
▁juge	-9.921
▁environ	-9.92169
▁trait	-9.92368
unanimité	-9.92435
▁associé	-9.92435
▁probablement	-9.92478
inte	-9.92529
établir	-9.92585
équipe	-9.92616
▁Comment	-9.92672
▁cohérente	-9.9276
▁simplification	-9.92794
▁utilisés	-9.92848
ck	-9.9292
▁bénéfice	-9.92974
▁plénière	-9.92974
▁soulevé	-9.92974
▁véritablement	-9.92992
appel	-9.93053
▁indépendant	-9.93069
▁criminalité	-9.93154
▁Serbie	-9.93334
▁vois	-9.93363
▁développé	-9.93487
▁favoris	-9.93515
▁enquête	-9.93535
atteindre	-9.93622
▁bas	-9.93635
▁satisfait	-9.93696
utiliser	-9.93704
▁tient	-9.93708
ouvr	-9.93756
ange	-9.93758
▁soutient	-9.93851
▁signe	-9.93866
▁textile	-9.93878
▁familles	-9.93974
▁sortir	-9.93976
▁Canada	-9.9406
incidence	-9.94242
▁facteurs	-9.9425
▁diversité	-9.94309
▁portée	-9.94366
▁relever	-9.94425
▁bénéfici	-9.945
▁vais	-9.94546
▁naturelles	-9.94586
▁continent	-9.94607
accept	-9.94616
omm	-9.94637
▁forêts	-9.94688
vant	-9.94744
▁résistance	-9.9479
rez	-9.94911
autant	-9.94912
▁totale	-9.94921
▁Éta	-9.9503
▁Ceci	-9.95053
▁revanche	-9.95158
▁denrées	-9.95158
▁portant	-9.95176
▁actif	-9.95352
▁lois	-9.95405
▁voit	-9.95441
▁200	-9.9551
▁définitive	-9.95527
▁notation	-9.95529
▁prête	-9.95581
▁poursuite	-9.95596
▁impliqué	-9.95711
▁principales	-9.95732
har	-9.9575
enquête	-9.958
▁quelles	-9.95849
▁commis	-9.95894
▁chapitre	-9.95896
▁hier	-9.95932
▁étroite	-9.96008
▁permettent	-9.96012
▁offrir	-9.96029
orientation	-9.96046
▁établir	-9.96071
▁prochaines	-9.96082
▁supérieur	-9.96082
▁considérables	-9.96083
Iran	-9.96098
▁remarque	-9.96131
▁méthode	-9.96179
Bas	-9.9624
▁acceptable	-9.9627
▁permanent	-9.96273
▁usage	-9.96307
▁critiques	-9.96406
▁entier	-9.96492
▁dehors	-9.96545
exception	-9.9664
▁lettre	-9.96653
▁essentiels	-9.96775
▁concernées	-9.96805
cour	-9.96832
▁opérations	-9.96848
▁baisse	-9.96886
ult	-9.96997
▁revenu	-9.97
▁importations	-9.9704
▁femme	-9.97134
▁produire	-9.97202
▁administratives	-9.97209
▁No	-9.97282
▁institutionnel	-9.97334
infrastructure	-9.97354
▁volontaire	-9.9739
▁spécial	-9.97426
▁engagé	-9.97448
▁arriver	-9.97473
quer	-9.97517
▁urgent	-9.97558
▁estimons	-9.97582
▁structurelle	-9.97591
▁comprend	-9.97768
ov	-9.97989
LT	-9.98003
▁substances	-9.98084
▁réduit	-9.9812
▁publicité	-9.98122
▁discours	-9.98146
▁congé	-9.98147
▁abus	-9.98158
▁apporté	-9.98161
▁Ro	-9.98184
▁faites	-9.98201
▁méthodes	-9.98236
▁circonstances	-9.98261
instaurer	-9.98291
▁adoptées	-9.98307
▁relève	-9.9833
▁insister	-9.98511
▁prioritaire	-9.98526
▁attirer	-9.98526
▁poids	-9.98526
▁déb	-9.98546
▁Suède	-9.98716
▁cohérence	-9.98716
▁autorisé	-9.98718
▁récent	-9.98745
▁apporte	-9.98746
▁suffisant	-9.98785
▁énergies	-9.98787
▁brut	-9.98933
▁gros	-9.98961
▁technologie	-9.99276
intermédiaire	-9.9929
▁paraît	-9.9929
▁trouvent	-9.99482
avez	-9.99494
octroi	-9.99674
appui	-9.99675
▁entière	-9.99709
▁attendre	-9.99739
▁aliments	-9.9977
▁régionales	-9.99772
écart	-9.99797
▁Pays	-9.99867
▁revenir	-9.99893
nés	-9.99949
examiner	-9.99973
be	-10.0001
▁capitale	-10.0002
opportunité	-10.0004
▁minute	-10.0006
orateur	-10.0013
issant	-10.0021
exploit	-10.0031
alisation	-10.0044
▁Di	-10.0044
▁ressort	-10.0045
▁subsidiarité	-10.0045
▁délais	-10.0057
▁dirai	-10.0057
▁mots	-10.0063
X	-10.0064
▁défend	-10.0067
▁Mar	-10.0072
▁différ	-10.0074
fi	-10.0076
▁souhaitons	-10.008
▁Dublin	-10.0084
▁mutuelle	-10.0085
▁remarques	-10.0093
▁fortement	-10.0096
▁libéral	-10.0097
Amérique	-10.0103
▁disposons	-10.0103
▁militaires	-10.0106
▁report	-10.0112
analyse	-10.0115
intégrer	-10.0116
▁réglementaire	-10.0123
▁restent	-10.0125
▁préoccupation	-10.0127
lor	-10.0135
▁auront	-10.0139
▁idée	-10.0149
▁vente	-10.0157
OTAN	-10.0162
▁minorités	-10.0164
apporter	-10.0172
instant	-10.0174
▁Biélorussie	-10.0181
▁Maastricht	-10.0181
▁Pakistan	-10.0181
▁législatives	-10.0185
ôt	-10.0194
▁Parti	-10.0197
▁local	-10.0208
▁octobre	-10.021
▁post	-10.0218
alternative	-10.0221
▁terrain	-10.0221
▁voulu	-10.0221
amb	-10.0221
▁rurales	-10.0222
▁opportun	-10.0223
▁intérieures	-10.0229
invite	-10.0236
iez	-10.0237
▁tri	-10.0238
appelle	-10.0239
▁tentative	-10.0241
gra	-10.0241
là	-10.0248
▁contribue	-10.0253
▁vol	-10.0255
▁vite	-10.026
▁bancaire	-10.026
▁souci	-10.0261
▁vital	-10.0264
▁faite	-10.0265
exemple	-10.0275
▁choisi	-10.0275
▁correspond	-10.0278
▁requis	-10.0281
encourager	-10.0284
oire	-10.0287
▁Re	-10.029
▁suffisante	-10.0293
▁transfrontalier	-10.03
▁»	-10.0306
▁études	-10.0311
▁CO	-10.0312
méditerranéen	-10.032
°	-10.032
▁disposé	-10.032
▁2020.	-10.033
▁orientale	-10.0332
▁Certains	-10.034
▁pertinent	-10.034
▁pluriannuel	-10.034
▁criminel	-10.034
▁marchandises	-10.034
▁permettrait	-10.035
exportation	-10.0356
▁significative	-10.036
▁venu	-10.036
▁Tous	-10.0361
ssement	-10.0361
▁combattre	-10.0361
▁dépens	-10.0365
▁prêt	-10.0387
▁sauvegarde	-10.04
▁progresser	-10.04
▁pourrions	-10.0403
assistance	-10.0417
▁siècle	-10.042
▁universel	-10.0424
nne	-10.0427
▁élaboré	-10.0435
autorisation	-10.0441
▁Lors	-10.0442
▁reprise	-10.0456
▁sûreté	-10.0463
▁visite	-10.0463
▁destinés	-10.0464
▁fermement	-10.0467
issent	-10.0475
▁français	-10.0475
▁arrive	-10.0476
aider	-10.0486
▁représentant	-10.0488
▁parlements	-10.049
▁ressortissants	-10.0501
▁représentante	-10.0507
▁ceci	-10.0518
▁exactement	-10.0523
▁parlement	-10.0523
▁eaux	-10.0527
agisse	-10.0531
▁suffit	-10.0535
▁spéciale	-10.0541
▁patrimoine	-10.0542
▁vivent	-10.0542
issue	-10.0542
▁existant	-10.0548
▁envisage	-10.0549
▁conduite	-10.0557
▁juillet	-10.0562
▁seuls	-10.0566
ki	-10.0569
▁partout	-10.0571
▁petit	-10.0577
▁dépasse	-10.0583
▁comportement	-10.0584
▁positifs	-10.0592
affirm	-10.0603
étendre	-10.062
▁PIB	-10.0644
▁payer	-10.0644
▁finances	-10.0645
▁demeure	-10.0645
▁indique	-10.0648
▁élevés	-10.065
▁gr	-10.0651
▁Est	-10.0656
▁Avec	-10.0665
important	-10.0665
▁21	-10.0672
▁quantité	-10.0677
ong	-10.0681
adapter	-10.0686
cha	-10.069
▁existants	-10.0691
▁refus	-10.0699
▁jeu	-10.0705
▁crucial	-10.071
▁diverses	-10.0719
▁dirigeants	-10.0727
applique	-10.0729
option	-10.073
▁préparer	-10.0732
▁exposé	-10.0735
▁communautés	-10.0747
▁cœur	-10.0748
▁adéquat	-10.0755
▁organisé	-10.0756
▁Afrique	-10.0758
ira	-10.0764
écu	-10.0765
▁cher	-10.0769
▁frais	-10.0771
▁Premier	-10.079
▁mobilisation	-10.079
▁moderne	-10.079
▁Lorsque	-10.0792
go	-10.0792
▁lancer	-10.0795
▁maladies	-10.0796
▁chances	-10.0801
▁claires	-10.0802
oir	-10.0804
▁exportations	-10.0814
▁interventions	-10.0816
▁visas	-10.0816
▁examiné	-10.0831
▁négatif	-10.0831
▁vingt	-10.0831
▁puissions	-10.0832
▁euros	-10.0834
éti	-10.0835
land	-10.0838
▁signé	-10.0867
transfrontalière	-10.0873
▁chaîne	-10.0873
▁avions	-10.0876
▁capable	-10.0877
cher	-10.0893
▁PPE	-10.0895
▁combien	-10.0898
▁Pro	-10.0901
▁exclu	-10.0905
▁citer	-10.0906
▁réussite	-10.0909
▁crée	-10.0928
▁petite	-10.0933
▁pacifique	-10.0937
▁collecte	-10.0937
envoyer	-10.0958
échec	-10.0959
hor	-10.0959
président	-10.0963
▁actuelles	-10.0969
▁influence	-10.0971
▁financé	-10.0979
▁géographique	-10.0979
▁déroule	-10.0979
▁Aussi	-10.098
▁dangereuse	-10.0981
▁fixer	-10.0982
▁réserves	-10.0993
▁répercussions	-10.1001
▁penser	-10.1026
▁dommage	-10.1044
▁com	-10.1056
▁illégale	-10.1056
▁réfléchir	-10.1065
▁activité	-10.108
▁pénal	-10.1083
extension	-10.1086
effort	-10.1093
ture	-10.1093
ah	-10.1093
▁connaît	-10.11
▁impact	-10.1101
▁violation	-10.1102
▁Pr	-10.1106
▁conciliation	-10.1108
▁subventions	-10.1111
époque	-10.1115
▁souhaitent	-10.1119
▁effort	-10.1128
▁devrons	-10.113
▁Vo	-10.1137
▁second	-10.1137
▁existantes	-10.1138
▁imposer	-10.1142
▁régimes	-10.1146
▁blanc	-10.1151
accorder	-10.1155
▁proposées	-10.1162
▁accordée	-10.1164
▁sexuelle	-10.1171
▁reconnais	-10.1172
tandis	-10.1173
▁fasse	-10.118
▁officielle	-10.1186
Soudan	-10.1195
▁défaut	-10.1195
▁négative	-10.1195
▁suppression	-10.1195
▁prouve	-10.1196
Applaudissements	-10.1216
▁quotas	-10.1216
▁entraîne	-10.1224
▁23	-10.1224
▁Quel	-10.1227
▁langue	-10.1228
▁belge	-10.1238
▁février	-10.1238
▁biais	-10.1239
▁véhicules	-10.1246
augmenter	-10.1248
▁directe	-10.1253
interprétation	-10.126
▁inutile	-10.126
EL	-10.1263
▁cesse	-10.1264
▁difficiles	-10.1266
rais	-10.1272
▁drogue	-10.1273
▁constate	-10.1277
ich	-10.1281
▁calendrier	-10.1282
▁basée	-10.1282
▁meilleures	-10.1286
▁manifeste	-10.1287
▁étude	-10.1293
explique	-10.1296
▁sérieusement	-10.1297
▁concentr	-10.1297
ième	-10.13
extrême	-10.1304
▁détermination	-10.1304
▁évoque	-10.1316
▁attend	-10.1317
▁sign	-10.1324
▁aurons	-10.133
exprime	-10.1334
▁institution	-10.1335
▁fonctionnaires	-10.1348
attend	-10.1358
van	-10.1364
▁Pologne	-10.137
▁amélioré	-10.137
▁prévenir	-10.1371
ï	-10.1372
▁complémentaire	-10.1379
▁entreprise	-10.1387
▁vouloir	-10.1392
▁proposée	-10.1399
▁80	-10.14
▁sub	-10.1403
▁relation	-10.1409
▁sud	-10.141
▁paiements	-10.1412
▁douanière	-10.1415
▁communs	-10.1417
▁Sa	-10.1422
▁ajouter	-10.1424
▁précédente	-10.1433
▁Troisièmement	-10.1437
▁recevoir	-10.1437
▁flux	-10.1439
▁appliqué	-10.1443
▁apparaît	-10.1447
excellent	-10.1449
droit	-10.145
▁compagnies	-10.1452
lier	-10.1452
adaptation	-10.1459
▁intervenir	-10.1471
▁organisée	-10.1478
▁forcé	-10.1482
▁vice	-10.1482
ifier	-10.1485
▁provenance	-10.1504
▁auxquelles	-10.1504
▁espace	-10.1533
émission	-10.1546
inc	-10.155
▁utilisation	-10.1562
▁insuffisant	-10.1572
▁poisson	-10.1572
▁pensions	-10.158
▁to	-10.1591
▁change	-10.1594
▁démarche	-10.1594
▁incombe	-10.1594
étiquetage	-10.1617
▁concert	-10.1617
▁innovant	-10.1617
▁facteur	-10.1619
▁langues	-10.1628
économique	-10.1631
▁futures	-10.1636
▁préférence	-10.164
▁Santer	-10.1643
▁2007	-10.1646
isés	-10.1649
mettent	-10.166
▁supprimer	-10.1662
▁prévoir	-10.1664
▁vivre	-10.1685
▁Irlande	-10.1687
lli	-10.1687
▁stable	-10.1687
▁concernent	-10.1688
▁cour	-10.1692
▁territoriale	-10.1697
ancienne	-10.1705
▁Plus	-10.1705
▁initiale	-10.1707
▁formulé	-10.1707
▁humain	-10.1708
▁simplifier	-10.1708
UEM	-10.1724
▁bat	-10.1726
▁capitaux	-10.1731
▁publié	-10.1731
▁professionnels	-10.1741
▁considérée	-10.1741
▁restrictions	-10.1745
▁FEM	-10.175
ka	-10.1781
▁accepte	-10.1781
▁bois	-10.1784
ast	-10.1787
log	-10.1792
▁contrats	-10.1797
▁rencontré	-10.18
▁tôt	-10.1801
▁mentionner	-10.1802
▁industriel	-10.1804
▁violences	-10.1813
▁personnellement	-10.1816
organiser	-10.1823
▁devait	-10.1826
▁appelé	-10.1827
▁modifié	-10.1838
avant	-10.1841
▁réagir	-10.1846
▁religion	-10.1847
▁bilatéraux	-10.1847
entreprises	-10.1849
▁contribuera	-10.1855
cteur	-10.1858
▁réglementations	-10.1864
▁erreurs	-10.1866
▁riche	-10.1868
▁Barroso	-10.187
▁reflète	-10.187
▁garder	-10.1875
▁favorables	-10.1884
▁industries	-10.1889
▁Chypre	-10.1893
▁perd	-10.191
▁formuler	-10.191
▁contribuables	-10.1918
internet	-10.193
algré	-10.1934
▁directeur	-10.1938
▁soumettre	-10.1944
agissant	-10.1945
▁commentaires	-10.1946
▁comprends	-10.1946
▁frontière	-10.1948
▁contribu	-10.1955
▁amélioration	-10.1962
▁conduit	-10.1969
Alliance	-10.1987
▁journal	-10.1987
▁149	-10.1991
▁vend	-10.1998
▁bananes	-10.2
▁proposés	-10.2007
éliminer	-10.2008
▁plein	-10.2013
offre	-10.2032
▁annoncé	-10.2034
▁pouvez	-10.2034
▁racisme	-10.2034
▁accomplis	-10.2056
▁primordial	-10.2058
▁stimuler	-10.2082
▁constaté	-10.2084
▁hors	-10.2086
▁central	-10.2094
▁travaillent	-10.2095
attaquer	-10.21
▁indépendante	-10.2103
▁entendre	-10.2106
▁susceptibles	-10.2114
▁revient	-10.2114
▁occidental	-10.2129
▁destinées	-10.2133
ô	-10.2134
▁chargé	-10.2147
apprécie	-10.2153
▁moitié	-10.2153
▁préfér	-10.2177
identité	-10.2177
▁convenu	-10.2184
▁continuent	-10.2186
▁passage	-10.2194
▁affecté	-10.2195
▁actuels	-10.2197
▁contribué	-10.2197
▁fruit	-10.2201
▁organismes	-10.2203
▁chefs	-10.2203
▁inscrit	-10.2207
▁60	-10.2211
▁mené	-10.2219
▁alloué	-10.2225
▁marge	-10.2225
▁réaliste	-10.2226
exigence	-10.2234
impose	-10.2244
▁scandale	-10.2249
▁menacé	-10.225
ores	-10.2251
▁Quelle	-10.2256
▁prévue	-10.2271
▁dépit	-10.2274
introduire	-10.2275
étranger	-10.2283
▁sérieuse	-10.2284
▁crime	-10.229
engage	-10.2295
Y	-10.2298
▁provoqué	-10.2298
▁ACP	-10.2298
▁multi	-10.2302
▁acquis	-10.2302
▁capacités	-10.2308
▁préciser	-10.2321
▁déterminé	-10.2322
▁espagnol	-10.2322
indication	-10.2322
▁êtes	-10.2322
▁heureuse	-10.2322
▁avancer	-10.2325
arrêter	-10.2326
▁connaître	-10.2331
midi	-10.2343
▁septembre	-10.2347
▁permettront	-10.2347
▁chrétiens	-10.2348
▁stocks	-10.2348
▁irlandais	-10.235
▁autrement	-10.2358
considérablement	-10.2365
▁atteinte	-10.2371
▁signaler	-10.2379
▁Moyen	-10.2396
▁codécision	-10.2396
▁dignité	-10.2396
▁gérer	-10.2396
assembl	-10.2413
aurait	-10.2413
▁capables	-10.2418
image	-10.242
▁Bosnie	-10.242
▁causé	-10.242
▁émis	-10.2421
▁registre	-10.243
▁envisager	-10.2432
▁viens	-10.2433
▁vulnérables	-10.2437
▁partenaire	-10.2441
ampleur	-10.2442
▁Ensuite	-10.2445
▁locaux	-10.2445
▁drogues	-10.2455
avait	-10.2456
▁adopte	-10.2457
▁garde	-10.2464
vironnementales	-10.2474
▁couvert	-10.2483
▁prennent	-10.2484
▁candidats	-10.2488
inquiétude	-10.2491
▁conscient	-10.2492
dessus	-10.2493
▁offert	-10.2494
▁règle	-10.25
▁perdre	-10.2501
▁pêcheurs	-10.2503
▁moteur	-10.2503
▁lourde	-10.2513
argument	-10.2516
▁strictes	-10.2516
▁Baltique	-10.2519
▁décennie	-10.2519
▁pouvait	-10.2519
Inde	-10.252
▁esprit	-10.2523
NL	-10.2524
bre	-10.2531
▁Toute	-10.2534
▁devenu	-10.2536
▁salaires	-10.2538
▁navires	-10.2542
austérité	-10.2544
▁Convention	-10.2544
▁dispositif	-10.2544
▁monsieur	-10.2544
▁suscite	-10.2544
▁puissance	-10.2544
attitude	-10.2549
▁perte	-10.255
▁rejet	-10.2556
▁2000	-10.2558
▁Quant	-10.2562
▁souveraineté	-10.2569
alimentation	-10.2578
▁experts	-10.2588
▁médecin	-10.2594
▁spéculation	-10.2594
▁télévision	-10.2594
▁opt	-10.2597
▁encourage	-10.2612
▁assis	-10.2616
▁croire	-10.2619
▁mettant	-10.2622
▁inclus	-10.2633
ombre	-10.2638
entrave	-10.2639
▁tradition	-10.2643
▁problématique	-10.2644
▁prospérité	-10.2644
▁renforcé	-10.2646
riez	-10.2649
▁bout	-10.2651
▁tenter	-10.2652
▁conserver	-10.2659
▁engagée	-10.2662
▁Van	-10.2668
▁proportion	-10.2669
▁Compte	-10.2669
▁construire	-10.2669
▁flotte	-10.2669
accroître	-10.2677
▁vaut	-10.268
empêche	-10.2697
▁activement	-10.2698
▁essentielles	-10.2699
▁protégé	-10.272
▁apportée	-10.2721
▁pleine	-10.2723
▁principale	-10.2737
▁garanti	-10.2739
▁ethnique	-10.2745
▁pertes	-10.275
▁débattre	-10.275
▁candidat	-10.2752
▁diminution	-10.2771
▁diplomatique	-10.2771
▁regrettable	-10.2771
issement	-10.2782
▁commence	-10.2793
á	-10.2796
▁vivant	-10.2796
▁prenant	-10.2796
▁transparente	-10.2816
▁profonde	-10.2819
▁tenant	-10.2822
▁31	-10.2843
▁témoigne	-10.2847
▁dangereux	-10.2851
▁arrivé	-10.2865
▁erreur	-10.2867
▁prévues	-10.2876
▁manifestation	-10.2899
▁milieu	-10.29
▁verr	-10.2904
▁combat	-10.2923
▁maternité	-10.2925
▁prononcé	-10.2925
▁répartition	-10.2926
élevage	-10.2927
▁Vi	-10.294
accueil	-10.2945
▁armes	-10.2949
rect	-10.2951
▁allemand	-10.2952
▁rejeté	-10.2955
▁Co	-10.2965
géné	-10.2967
▁limitée	-10.297
▁moyenne	-10.2976
▁reconstruction	-10.2977
▁crimes	-10.2985
▁entraîner	-10.2985
▁montrent	-10.2995
▁Grande	-10.3002
Albanie	-10.3003
Yougoslavie	-10.3003
▁socialistes	-10.3003
▁code	-10.3013
▁utilisées	-10.3014
▁24	-10.302
▁auraient	-10.302
É	-10.302
▁médical	-10.3029
▁soutenons	-10.3029
annonce	-10.3029
▁releva	-10.303
ang	-10.303
pul	-10.3039
aucun	-10.3039
▁parallèle	-10.3055
▁caractéristique	-10.3055
▁signature	-10.3055
▁BEI	-10.3055
▁employé	-10.3059
▁mauvais	-10.3069
▁équilibrée	-10.3071
mini	-10.3074
▁concrète	-10.3077
acte	-10.3078
▁démographique	-10.3081
▁possède	-10.3081
▁terminer	-10.3089
inclusion	-10.3091
auto	-10.3092
éventuel	-10.3107
accélérer	-10.3108
▁maximum	-10.3108
▁qualifiée	-10.3108
▁limité	-10.3115
▁accroître	-10.3126
▁existent	-10.3132
▁électrique	-10.3134
▁vaccin	-10.3134
▁inégalités	-10.3134
agence	-10.3139
▁degré	-10.3144
▁chiffre	-10.3148
Euro	-10.3155
infraction	-10.316
▁bureaucratie	-10.316
▁constitu	-10.3186
▁démontré	-10.3187
▁référendum	-10.3187
communications	-10.3187
▁Maroc	-10.3188
▁conscients	-10.319
▁avril	-10.3192
▁suppose	-10.3205
▁leçons	-10.3213
▁sanitaire	-10.3213
▁sept	-10.3216
effet	-10.3229
▁préoccupe	-10.3236
▁constructive	-10.324
▁propriété	-10.324
▁urbain	-10.324
oblige	-10.324
▁orateurs	-10.3245
▁Belgique	-10.3267
▁compétitive	-10.3267
▁licenciement	-10.3267
▁similaire	-10.3267
intéresse	-10.3267
▁surmonter	-10.3267
▁courant	-10.3269
▁sort	-10.3275
▁serons	-10.3277
ONU	-10.3294
instauration	-10.3294
▁placé	-10.3294
▁avancé	-10.3303
▁attendons	-10.3308
ajouter	-10.3315
▁confrontée	-10.3319
▁remédier	-10.3321
▁répète	-10.3321
▁1994	-10.3321
▁plainte	-10.3321
effectuer	-10.3323
▁équilibré	-10.3331
▁ravi	-10.3334
▁difficulté	-10.3339
vaient	-10.3341
▁respectent	-10.3343
▁Balkans	-10.3348
▁sévère	-10.3348
▁terroriste	-10.3348
▁complètement	-10.3349
▁compter	-10.335
▁assumer	-10.335
▁Al	-10.3356
▁différence	-10.3367
▁personnelle	-10.337
aval	-10.3373
Bretagne	-10.3375
inter	-10.3376
▁élaborer	-10.3381
▁décide	-10.3384
auteur	-10.3387
ub	-10.3394
▁parvenus	-10.3401
Z	-10.3402
▁dynamique	-10.3402
▁90	-10.3403
▁cru	-10.3404
▁situé	-10.3405
▁arguments	-10.3406
▁pétrole	-10.3429
▁Ou	-10.3436
▁sûre	-10.3449
importation	-10.3452
▁Florence	-10.3456
▁russe	-10.3456
aille	-10.3474
▁conception	-10.3474
▁cherche	-10.3477
▁2006	-10.3481
▁promesse	-10.3483
▁laisse	-10.3485
achat	-10.3497
aura	-10.3501
▁conviction	-10.3511
▁mène	-10.3511
▁camp	-10.3511
HU	-10.3513
▁italienne	-10.3522
▁rempli	-10.3528
forme	-10.3535
▁recommande	-10.3536
Démocrates	-10.3538
▁ONG	-10.3538
▁discuté	-10.3538
▁arabe	-10.3538
▁Égypte	-10.3547
▁habitants	-10.355
▁chef	-10.3564
ng	-10.3564
représenté	-10.3566
▁viennent	-10.3566
▁améliorations	-10.3569
institutionnelle	-10.3574
avec	-10.3587
▁fermeture	-10.3594
▁provenant	-10.3595
▁intégré	-10.3604
(	-10.3615
La	-10.3618
▁joué	-10.3622
▁via	-10.3625
▁évaluer	-10.3646
▁bureau	-10.3651
▁fut	-10.3677
▁enregistré	-10.3677
▁tête	-10.3677
▁envisagé	-10.3677
▁commencé	-10.3677
▁parvenu	-10.3677
▁complet	-10.3705
▁excessive	-10.3705
▁trompe	-10.3705
▁étendu	-10.3706
▁fondement	-10.3716
▁immédiate	-10.3719
▁expliquer	-10.372
▁accordé	-10.373
▁collective	-10.3733
▁Quand	-10.3734
ept	-10.3734
▁organes	-10.3736
▁suffi	-10.3745
▁condamn	-10.3749
▁postes	-10.3762
▁ayons	-10.3766
bra	-10.3783
▁hongrois	-10.3788
▁TVA	-10.3789
▁reconnaît	-10.3811
▁concrets	-10.3821
▁seconde	-10.3835
istan	-10.3839
ouch	-10.3841
obstacle	-10.3842
hémicycle	-10.3846
▁abstenu	-10.3846
▁migrants	-10.3846
▁répéter	-10.3846
▁ultérieur	-10.3846
▁Qui	-10.3861
oui	-10.3873
▁support	-10.3874
aller	-10.3881
▁test	-10.3891
aspect	-10.39
iel	-10.3915
élimination	-10.3919
▁tenue	-10.3929
accéder	-10.3931
aborder	-10.3932
▁inquiétudes	-10.3935
▁assistance	-10.3936
▁villes	-10.3936
▁présentation	-10.3941
▁socio	-10.3947
▁soyons	-10.396
▁résulte	-10.396
▁bloc	-10.396
▁An	-10.396
avais	-10.3961
environnementaux	-10.3962
▁différente	-10.3984
accepter	-10.3986
aurais	-10.3987
▁Lituanie	-10.3988
▁matériel	-10.3988
▁remarquer	-10.3996
▁socialiste	-10.4004
▁travaillé	-10.4012
▁formule	-10.4014
étude	-10.4017
▁libéraux	-10.4017
▁cibl	-10.402
▁aurions	-10.402
▁nettement	-10.402
▁générations	-10.4021
▁excellente	-10.4023
▁faiblesse	-10.4024
▁réclame	-10.4025
▁fonctionner	-10.4028
col	-10.4032
▁délicat	-10.4046
▁frappé	-10.4046
▁significatif	-10.4046
élaborer	-10.4046
▁recev	-10.4047
importe	-10.4047
▁installations	-10.4049
▁couvre	-10.405
▁coopérer	-10.4054
▁conduire	-10.4066
identifier	-10.4075
▁Constitution	-10.4075
▁orale	-10.4076
▁remis	-10.4078
▁prononcer	-10.4078
▁transparent	-10.4081
▁renforce	-10.4094
▁Géorgie	-10.4104
▁religieuse	-10.4104
▁bientôt	-10.4104
▁recettes	-10.411
empêcher	-10.4126
▁centaines	-10.4133
▁conservation	-10.4133
▁crédible	-10.4133
▁approfondie	-10.4139
▁poste	-10.414
▁In	-10.4142
▁levée	-10.4145
▁avantage	-10.415
▁biodiversité	-10.4163
▁obligé	-10.4163
▁déplore	-10.4163
▁invité	-10.4163
▁multilatéral	-10.4184
▁augmente	-10.4188
▁suggestion	-10.4192
▁directrices	-10.4192
▁Comité	-10.4192
▁lacunes	-10.4193
▁reconnaissant	-10.4193
▁bénéficiaires	-10.4194
▁500	-10.4194
▁étrangers	-10.4197
▁sincèrement	-10.42
▁développ	-10.4208
évoqu	-10.4209
▁élevées	-10.4209
explication	-10.4221
ö	-10.4221
▁augmenté	-10.4221
▁distribution	-10.4223
évaluer	-10.4224
▁coordonner	-10.4228
▁Ré	-10.4232
▁retrouv	-10.4233
▁confirmé	-10.4236
▁étroitement	-10.4249
▁préoccupé	-10.4251
▁justifié	-10.4251
▁consenti	-10.4251
attaque	-10.4254
▁22	-10.4267
ruc	-10.4276
▁investi	-10.4277
▁révolution	-10.4287
▁éventuelle	-10.4294
▁tente	-10.4298
▁durabilité	-10.4311
▁contraint	-10.4311
▁exercer	-10.4314
▁naturel	-10.4324
▁citoyenne	-10.4333
▁ban	-10.4335
élection	-10.4339
▁déplace	-10.434
▁génétique	-10.434
▁CIG	-10.434
▁condamné	-10.4349
▁charbon	-10.437
▁plaisir	-10.437
▁suggér	-10.437
▁somme	-10.4371
entamer	-10.4371
▁revoir	-10.4374
▁croissante	-10.4382
environnementale	-10.4397
▁généralement	-10.4401
▁tienne	-10.4401
▁inclure	-10.4415
▁époque	-10.442
▁semblent	-10.4428
▁vérité	-10.443
▁bilatéral	-10.443
▁contrôl	-10.4445
▁saisir	-10.4454
▁fondé	-10.4455
▁Déclaration	-10.446
▁représentation	-10.446
▁bénéficient	-10.4474
▁essayer	-10.4487
attache	-10.449
▁parents	-10.4492
▁laissé	-10.4493
▁huit	-10.4497
▁liée	-10.4501
▁animale	-10.4503
▁affecte	-10.451
▁informer	-10.4514
organe	-10.4517
▁Tel	-10.4517
agissait	-10.452
avère	-10.452
▁visent	-10.4546
ambition	-10.4547
électricité	-10.4551
▁gel	-10.4554
ER	-10.4563
▁investir	-10.4574
Islande	-10.4581
appuyer	-10.4581
▁handicapées	-10.4584
où	-10.4591
ancien	-10.4605
▁ville	-10.4606
▁remplacer	-10.4608
▁régler	-10.4612
▁considérons	-10.4612
▁Peut	-10.4612
SK	-10.4613
▁pétitions	-10.4618
▁nations	-10.4625
▁pharmaceutique	-10.4642
armée	-10.4643
▁attentes	-10.4645
▁destiné	-10.4648
▁confirmer	-10.4662
▁explicite	-10.4673
▁valable	-10.4673
▁garantissant	-10.4674
▁pire	-10.4675
▁allé	-10.4685
▁motion	-10.4697
▁introduire	-10.4703
▁inférieur	-10.4704
▁médiateur	-10.4704
▁physique	-10.4704
▁tension	-10.4704
▁prie	-10.4706
▁réduite	-10.4708
▁rétablir	-10.4709
▁notion	-10.471
abri	-10.4713
▁Non	-10.4716
▁planification	-10.4718
▁constitutionnel	-10.4719
▁arrêté	-10.472
▁saisi	-10.4724
▁consolidation	-10.4735
▁Noire	-10.4737
▁devient	-10.4737
▁richesse	-10.4738
▁correcte	-10.4747
▁occup	-10.4749
▁pratiquement	-10.4751
▁70	-10.4751
▁Concernant	-10.4766
▁administratif	-10.4766
▁rédigé	-10.4766
▁satisfaire	-10.4766
▁scène	-10.4766
▁nord	-10.4766
▁dépendance	-10.477
▁carte	-10.4771
▁taille	-10.4783
▁coordonnée	-10.4785
Autriche	-10.4797
▁carbone	-10.4797
▁rom	-10.481
▁encourageant	-10.4812
▁retrait	-10.4816
▁Moldavie	-10.4828
▁privilégi	-10.4828
▁programmation	-10.4828
▁remarquable	-10.4828
▁restructuration	-10.4828
▁temporaire	-10.4828
▁profondément	-10.4829
éthique	-10.483
▁contribuent	-10.484
exemption	-10.486
▁accessible	-10.486
▁discipline	-10.486
▁domestique	-10.486
▁version	-10.4868
influence	-10.4873
▁néglige	-10.4875
▁chercher	-10.4883
▁1999	-10.4891
▁chinois	-10.4891
▁contradiction	-10.4891
▁recourir	-10.4891
▁désastre	-10.4891
▁détriment	-10.4891
▁Certes	-10.4892
▁exclusivement	-10.49
ajout	-10.4902
institution	-10.4904
▁déterminant	-10.4923
▁synergie	-10.4923
▁tonnes	-10.4924
▁française	-10.4932
▁29	-10.4935
▁déployé	-10.4954
▁participant	-10.4954
▁doter	-10.4956
▁seuil	-10.4958
2010	-10.4968
▁Finlande	-10.4986
▁ambitieuse	-10.4986
▁vérifier	-10.4986
▁partagé	-10.4986
▁connaissons	-10.4987
▁librement	-10.4988
▁interdit	-10.4991
oppose	-10.4994
ial	-10.5004
▁affirme	-10.5004
ession	-10.5015
▁Strasbourg	-10.5018
▁régionaux	-10.5018
écoute	-10.5024
▁imm	-10.5027
▁prison	-10.5032
▁transeuropéens	-10.505
abi	-10.505
▁investisseurs	-10.505
▁gauche	-10.5052
▁imposé	-10.5053
▁viable	-10.5054
▁traditionnelle	-10.5082
▁bovine	-10.5082
▁dérogation	-10.5082
▁ordinaire	-10.5082
▁pollution	-10.5082
mètre	-10.5082
pouvant	-10.5082
▁fiscalité	-10.5085
▁cruciale	-10.5108
▁remettre	-10.5115
▁bio	-10.5125
▁souhaitable	-10.5127
étaient	-10.5132
▁insiste	-10.5132
▁souverain	-10.5146
▁bénéfique	-10.5146
▁discutons	-10.5146
▁exercé	-10.5147
▁disposent	-10.5162
▁rappelé	-10.5172
▁dollar	-10.5179
▁migration	-10.5179
▁externe	-10.5179
avantage	-10.5185
purement	-10.5189
▁méritent	-10.5194
▁saluer	-10.5209
▁prétexte	-10.5211
▁vivement	-10.5211
▁uniforme	-10.5211
iz	-10.5219
entendre	-10.523
imposer	-10.5241
▁distance	-10.5244
armement	-10.5244
▁formulées	-10.5253
▁abouti	-10.5255
▁Aucun	-10.5257
ik	-10.5259
▁Objet	-10.5277
▁chômeurs	-10.5277
▁guère	-10.5277
▁basé	-10.5318
▁jouent	-10.532
▁utilis	-10.5321
▁Pourtant	-10.5326
▁content	-10.5327
ème	-10.5327
▁réclam	-10.5334
emprunt	-10.5342
▁satisfaction	-10.5342
▁Danube	-10.5342
▁décrit	-10.5345
▁prenne	-10.5356
▁retirer	-10.5371
africain	-10.5373
▁souhaité	-10.5375
▁révélé	-10.5375
▁semestre	-10.5375
▁conçu	-10.5375
▁poursuivi	-10.5375
▁derrière	-10.5375
▁facilement	-10.5377
▁retire	-10.538
▁doté	-10.539
▁occupe	-10.5401
▁vin	-10.5423
▁âgées	-10.5423
admet	-10.5436
occupant	-10.5437
▁multipli	-10.5442
▁choisir	-10.545
▁exact	-10.5451
▁milliard	-10.5457
Égypte	-10.5464
▁hauteur	-10.5465
▁nul	-10.5468
▁modernisation	-10.5475
▁préparé	-10.5475
▁détaillée	-10.5475
▁fou	-10.5491
▁connais	-10.5508
▁Médiateur	-10.5508
▁Avant	-10.5517
élément	-10.5532
œuvre	-10.5532
abandon	-10.5542
▁survenu	-10.5542
▁réduis	-10.5544
▁formulation	-10.5546
▁inform	-10.5559
aucune	-10.5569
OSCE	-10.5576
accroissement	-10.5576
▁inondations	-10.5576
▁tombe	-10.5576
▁classe	-10.5577
▁Israël	-10.5594
▁intelligente	-10.5598
opération	-10.5604
Autorité	-10.5609
▁soutenue	-10.5613
▁couvrir	-10.5626
▁Ceux	-10.5643
▁soulève	-10.5643
▁suédois	-10.5643
▁concerné	-10.5646
▁distribu	-10.5675
▁convaincue	-10.5677
▁admettre	-10.5677
▁familiale	-10.5682
▁minimal	-10.5683
exerce	-10.5684
▁estimé	-10.5688
▁attendent	-10.5691
▁lié	-10.5696
▁susceptible	-10.57
essentiel	-10.5703
indique	-10.571
▁répression	-10.5711
▁crains	-10.5712
▁aboutir	-10.5714
▁gagner	-10.5738
échéance	-10.5746
▁latine	-10.5751
▁nordique	-10.5767
fu	-10.5773
acquis	-10.5773
▁numérique	-10.578
▁calcul	-10.578
▁volume	-10.578
▁bref	-10.5782
▁octroy	-10.5787
▁coeur	-10.579
▁effective	-10.5798
auche	-10.5802
▁combin	-10.5815
▁envoyé	-10.5815
▁connaissent	-10.5815
▁constitution	-10.5818
▁trouvons	-10.5823
▁devenue	-10.5826
acteur	-10.5833
▁fédéral	-10.5834
▁26	-10.5838
▁expliqu	-10.5844
▁élargi	-10.5845
▁handicap	-10.5846
ignore	-10.5848
▁dénonce	-10.5849
▁transformation	-10.5849
▁ratification	-10.5849
▁déclare	-10.5852
▁justifie	-10.5855
▁oui	-10.5864
▁destinée	-10.5868
▁regret	-10.5874
▁différent	-10.5879
périphériques	-10.5884
▁supervision	-10.5884
▁Charte	-10.5884
▁articles	-10.589
▁finir	-10.5913
▁appartient	-10.5915
▁contraintes	-10.5917
▁permanente	-10.5918
▁clarifier	-10.5919
▁consolider	-10.5919
▁prolonge	-10.5919
▁rigueur	-10.5919
▁voilà	-10.5919
▁Jusqu	-10.5919
▁franchi	-10.592
▁28	-10.5931
▁Ni	-10.5937
adhérer	-10.5951
▁combustible	-10.5954
▁censure	-10.5954
▁35	-10.5973
▁génération	-10.5984
▁bureaucratique	-10.5989
▁bâtiment	-10.5989
▁importé	-10.5989
▁prestation	-10.5989
énoncé	-10.5989
enregistrement	-10.5989
▁duquel	-10.5989
▁rares	-10.5994
▁sang	-10.6007
▁retrouver	-10.601
▁automatique	-10.6024
▁compensation	-10.6024
▁préjudice	-10.6024
▁rigoureuse	-10.6024
▁prévision	-10.6024
▁précaire	-10.6024
▁radio	-10.6025
▁indiquer	-10.6026
▁souffrent	-10.6035
▁jeunesse	-10.6035
▁croissant	-10.6049
▁constat	-10.6055
▁quatrième	-10.6059
Afghanistan	-10.6059
▁marqué	-10.6059
▁mineurs	-10.6059
▁éco	-10.606
▁vitesse	-10.6063
étudier	-10.6069
oublions	-10.6069
▁tellement	-10.6075
opposer	-10.6086
ow	-10.6088
▁quelconque	-10.6095
▁retenu	-10.6095
▁séjour	-10.6095
▁rappel	-10.6096
▁confirme	-10.6106
▁systématique	-10.6118
▁fixe	-10.6126
▁critère	-10.6129
Honorable	-10.613
▁rapprocher	-10.6131
▁observations	-10.6134
audit	-10.6137
▁sert	-10.6139
▁négocié	-10.6154
▁habit	-10.6156
K	-10.6163
énorme	-10.6165
entreprendre	-10.6166
▁division	-10.6166
▁traduit	-10.6166
▁mines	-10.6173
▁opinions	-10.6179
▁refuser	-10.6181
▁procédé	-10.6183
FI	-10.6188
▁manifestement	-10.6193
RE	-10.6196
▁grec	-10.62
▁nourri	-10.6202
▁changé	-10.6202
▁compétitif	-10.6202
▁légitimité	-10.6202
insertion	-10.6202
▁macroéconomique	-10.6202
▁bleu	-10.6203
▁locale	-10.6205
▁finale	-10.6206
européen	-10.6237
▁saine	-10.6265
alcool	-10.6274
apprentissage	-10.6274
▁Brésil	-10.6274
▁opérateurs	-10.6274
▁terrible	-10.6274
▁douane	-10.6274
▁Donc	-10.6274
▁transmis	-10.6274
▁quasi	-10.6275
▁travaille	-10.6283
▁assure	-10.6287
voir	-10.629
▁italien	-10.6296
exercer	-10.6301
employ	-10.6305
▁imposées	-10.6306
▁fiscaux	-10.631
▁convaincre	-10.6312
▁tend	-10.6318
▁marin	-10.6318
▁régulièrement	-10.6325
▁correct	-10.6341
harmoniser	-10.6347
▁diffusion	-10.6347
▁modalités	-10.6347
horizon	-10.6347
▁mainte	-10.6357
rice	-10.6381
▁Grâce	-10.6383
▁révèle	-10.6383
▁siège	-10.6383
▁quotidienne	-10.6387
▁débattons	-10.6404
élève	-10.641
intervien	-10.6413
▁favorablement	-10.6414
▁satisfaisante	-10.6419
▁séparé	-10.642
▁Suisse	-10.642
▁massive	-10.642
▁chimique	-10.642
annexe	-10.642
▁absolue	-10.642
appliquent	-10.6423
▁Parlementaire	-10.6442
amende	-10.6445
▁exceptionnelle	-10.6445
▁brièvement	-10.6456
▁entraîné	-10.6456
CEE	-10.6466
ève	-10.648
ologique	-10.6514
implication	-10.6527
▁compléter	-10.653
▁reprendre	-10.653
évalué	-10.653
▁fallait	-10.653
▁radicale	-10.6537
▁chargée	-10.6539
▁salaire	-10.654
▁modifiée	-10.6544
▁dirige	-10.6567
▁performance	-10.6568
honneur	-10.6568
▁Seul	-10.6568
▁logement	-10.6568
▁néerlandaise	-10.6569
▁urgente	-10.6572
amener	-10.6574
▁surveiller	-10.6575
▁assum	-10.6589
installation	-10.6601
Asie	-10.6604
▁débattu	-10.6605
inflation	-10.6605
▁Cancún	-10.6605
▁science	-10.6605
▁électeurs	-10.6605
▁million	-10.6616
▁négocier	-10.6619
immédiat	-10.6638
assister	-10.6645
▁digne	-10.6646
▁substance	-10.6655
▁front	-10.6667
▁émerge	-10.6678
▁Tchernobyl	-10.668
▁intervenu	-10.668
▁multinationale	-10.668
▁supprimé	-10.668
▁incapable	-10.668
▁promis	-10.6681
▁allemande	-10.6682
▁remplir	-10.6694
▁recul	-10.6701
ko	-10.6714
espèce	-10.6714
▁Danemark	-10.6718
▁tragédie	-10.6718
▁turc	-10.6718
▁distinction	-10.6724
▁serai	-10.6725
▁spécifiquement	-10.6725
▁conven	-10.6726
▁merci	-10.6747
▁justifier	-10.6749
▁impératif	-10.6756
▁liaison	-10.6756
▁banque	-10.6774
▁éventuellement	-10.6777
▁garantit	-10.6784
▁répondu	-10.6785
▁consacrer	-10.6794
▁fictifs	-10.6794
▁inquiétant	-10.6794
▁tarifaire	-10.6794
▁équipements	-10.6794
▁maintenu	-10.6794
▁bilan	-10.6794
▁unitaire	-10.6794
apprendre	-10.6803
6/	-10.6808
▁régi	-10.6817
▁clarté	-10.6832
▁encouragé	-10.6832
▁excessif	-10.6832
▁navigation	-10.6832
▁routier	-10.6832
▁substantielle	-10.6853
▁condamner	-10.6853
▁rémunération	-10.687
▁touristique	-10.687
▁voyons	-10.687
▁taxation	-10.687
▁neuf	-10.6871
▁quelqu	-10.6878
experts	-10.6879
▁limitation	-10.6908
▁lobby	-10.6908
▁harmonisé	-10.6909
avocat	-10.6909
▁mondiaux	-10.6909
▁tiré	-10.691
▁indicateurs	-10.6911
▁considérant	-10.6916
▁individuel	-10.692
▁sites	-10.6926
nom	-10.6942
▁circonscription	-10.6947
▁constructif	-10.6947
▁cycle	-10.6947
▁pousse	-10.6948
▁rang	-10.6949
▁volet	-10.695
▁vide	-10.6955
▁dépensé	-10.696
▁progressivement	-10.6964
▁transit	-10.6974
▁pens	-10.6979
▁sélection	-10.6983
inquiète	-10.6986
▁fourniture	-10.6988
▁morale	-10.6994
▁vague	-10.6995
offrir	-10.6997
▁survie	-10.7019
▁honnête	-10.702
▁décent	-10.7021
í	-10.7025
▁compréhension	-10.7025
▁instamment	-10.7025
▁madame	-10.7025
▁participé	-10.7025
▁compromet	-10.7025
attribution	-10.7026
▁mention	-10.7033
étend	-10.7038
▁condamnation	-10.7045
▁accru	-10.7061
▁refusé	-10.7063
Europol	-10.7064
occurrence	-10.7064
▁flexible	-10.7064
▁électorale	-10.7064
aggrave	-10.7064
▁viabilité	-10.7064
▁prendra	-10.7067
▁espèces	-10.7068
▁progressive	-10.7086
clé	-10.7099
impôt	-10.7102
▁repos	-10.7102
▁linguistique	-10.7103
▁stabilisation	-10.7103
▁quinze	-10.7103
▁destination	-10.7103
▁délit	-10.7112
▁extraordinaire	-10.7142
▁occidentaux	-10.7142
▁préconise	-10.7142
instar	-10.7142
▁puissant	-10.7154
implique	-10.7156
▁réexamen	-10.7159
▁deviennent	-10.716
▁concession	-10.7182
▁dramatique	-10.7182
▁mobiliser	-10.7182
▁nuit	-10.7183
▁correspondant	-10.7186
Etat	-10.7191
▁aborde	-10.7199
▁concrètement	-10.7207
1/	-10.7212
▁minimales	-10.7215
appuie	-10.7227
▁demandeurs	-10.7244
▁rejeter	-10.7246
▁cesser	-10.7256
▁refuse	-10.726
▁multiples	-10.7261
▁tragique	-10.7261
▁jugement	-10.7299
▁constante	-10.7301
▁inévitable	-10.7301
▁objective	-10.7301
▁précédemment	-10.7301
▁danois	-10.7302
ète	-10.7306
▁défendu	-10.7314
▁prime	-10.7316
habituel	-10.7319
▁permette	-10.7336
▁compliqué	-10.7342
▁disparités	-10.7342
▁licenciés	-10.7342
▁subsiste	-10.7342
▁consul	-10.7342
ALE	-10.7342
▁Puis	-10.7348
▁cohérent	-10.7349
Affaire	-10.7351
▁posent	-10.7361
▁sexe	-10.7368
imposent	-10.7374
▁pencher	-10.7382
voi	-10.7386
▁adaptée	-10.7386
inverse	-10.7388
erreur	-10.7389
opère	-10.7392
venant	-10.7398
▁constamment	-10.7422
▁réservé	-10.7422
▁satellite	-10.7422
▁transformer	-10.7422
étais	-10.7423
observation	-10.7439
▁diminuer	-10.7449
embargo	-10.7463
identification	-10.7463
▁transitoire	-10.7464
▁tiendra	-10.7465
▁normalisation	-10.7466
▁individuelle	-10.7482
▁concret	-10.7498
▁adoptant	-10.7504
▁identique	-10.7504
▁affich	-10.7504
inclure	-10.7523
▁savent	-10.7536
▁minorité	-10.754
▁voulais	-10.7545
▁jugé	-10.7545
▁priv	-10.755
▁profession	-10.7585
étudiants	-10.7586
▁Kosovo	-10.7586
▁transposition	-10.7586
▁fassent	-10.7586
▁géré	-10.7586
incident	-10.7587
efforcer	-10.7593
▁bi	-10.7609
oubli	-10.7614
▁institu	-10.762
ref	-10.7621
▁unilatérale	-10.7627
humanité	-10.7627
▁prenons	-10.7627
▁Bar	-10.7628
▁révisé	-10.7629
▁remerciements	-10.763
▁intellectuelle	-10.7631
▁jeudi	-10.7634
intervenir	-10.7649
▁administrative	-10.7667
▁sinon	-10.7669
▁monopole	-10.7669
▁autonome	-10.7669
19	-10.7673
carton	-10.7674
▁déclarer	-10.7681
débat	-10.7691
▁régulière	-10.7694
échelon	-10.7711
▁auparavant	-10.7711
▁distorsion	-10.7711
éclair	-10.7711
▁biologique	-10.7711
▁stockage	-10.7712
▁pénale	-10.7717
▁pèse	-10.7721
▁utilisant	-10.7726
▁négoci	-10.7744
▁délibér	-10.7752
▁Ministre	-10.7752
▁cinquième	-10.7752
▁pourcentage	-10.7752
instabilité	-10.7752
▁unanime	-10.7752
▁marche	-10.7753
exige	-10.7779
hu	-10.7786
▁cite	-10.7787
incertitude	-10.7794
▁destruction	-10.7794
▁déloyale	-10.7794
▁démantèlement	-10.7794
▁forestière	-10.7794
▁combler	-10.7794
▁tort	-10.7796
▁bienvenue	-10.7799
▁auteurs	-10.7801
avion	-10.7822
4/	-10.7829
▁gouvern	-10.7832
▁admis	-10.7835
▁complexité	-10.7837
▁divergence	-10.7837
aéroport	-10.7837
quête	-10.7855
intensifier	-10.7859
▁honte	-10.7863
encouragement	-10.7876
▁1992	-10.7879
▁Monténégro	-10.7879
▁gravité	-10.7879
▁portugais	-10.7879
▁vieillissement	-10.7879
▁extra	-10.7884
▁amis	-10.7899
▁rue	-10.791
occuper	-10.792
▁polonais	-10.7922
allocation	-10.7922
actuelle	-10.7924
COM	-10.7932
▁cap	-10.7933
2/	-10.7947
écoule	-10.7951
▁lire	-10.7954
▁adressée	-10.7959
▁provisoire	-10.7964
▁régulation	-10.7964
▁toxicomanie	-10.7964
▁établissant	-10.7968
ayant	-10.797
insister	-10.7981
▁concentration	-10.7989
▁concrétis	-10.7991
▁1998	-10.8007
▁préservation	-10.8007
▁opérationnelle	-10.8009
▁passeport	-10.8011
▁fiscal	-10.8014
▁approfondi	-10.8017
▁affirmer	-10.8021
inspection	-10.8027
▁vache	-10.8032
▁adapté	-10.8046
▁déten	-10.805
▁1993	-10.805
▁voudrions	-10.805
▁relèvent	-10.8052
▁payé	-10.8052
▁super	-10.8053
-2013	-10.8094
objection	-10.8094
▁défavorisé	-10.8094
▁dumping	-10.8094
▁label	-10.8097
▁censé	-10.8108
▁contenter	-10.8115
évidence	-10.8123
▁opérationnel	-10.8135
ologie	-10.8135
▁ferons	-10.8137
▁1990	-10.8137
▁Parallèlement	-10.8137
▁décisive	-10.8137
▁illicite	-10.8137
▁transpos	-10.8137
▁réacteurs	-10.8137
immense	-10.8138
▁règne	-10.8181
▁visible	-10.8181
▁tchèque	-10.8181
▁poussé	-10.8181
▁Syrie	-10.8181
▁allant	-10.8182
excuse	-10.8183
▁Oui	-10.8193
▁devienne	-10.8206
▁dépendent	-10.8208
élan	-10.8213
▁communiqué	-10.8225
▁appris	-10.8225
▁décisif	-10.8225
anglais	-10.8225
▁anciens	-10.823
▁entrepris	-10.8231
▁figurent	-10.8232
▁75	-10.8236
▁maximale	-10.8243
ajoute	-10.8246
▁affirmé	-10.8272
▁Th	-10.8275
▁ouvre	-10.8305
▁délocalisation	-10.8313
▁dépassé	-10.8313
engendre	-10.8313
▁chute	-10.8314
▁surpris	-10.8319
▁Monti	-10.8328
▁annuelle	-10.8328
▁serre	-10.8344
efforce	-10.835
▁spécialisé	-10.8351
4-01	-10.8357
Institut	-10.8357
▁conformité	-10.8357
▁facilité	-10.8357
▁légère	-10.8357
▁démocratisation	-10.8357
▁ambitions	-10.8363
▁remplace	-10.8363
▁Pas	-10.8365
intégrité	-10.8383
J	-10.8392
inscrit	-10.8392
temps	-10.8394
entretien	-10.8396
appareil	-10.8402
▁compatible	-10.8402
▁recyclage	-10.8402
▁tribunal	-10.8402
▁of	-10.8404
▁collaborer	-10.8418
▁resté	-10.8428
▁publication	-10.8436
exécutif	-10.8447
▁accompagné	-10.8447
▁ferroviaire	-10.8447
▁rapprochement	-10.8447
▁définitif	-10.8447
▁frein	-10.8447
▁rendent	-10.845
▁officiel	-10.8465
institutionnel	-10.8478
événement	-10.8488
berg	-10.8489
▁composé	-10.8492
▁échéant	-10.8492
▁écouté	-10.8492
▁fusion	-10.8492
▁débouche	-10.8492
habitude	-10.8495
▁banane	-10.8512
▁collabor	-10.8515
usage	-10.852
Amsterdam	-10.8537
ü	-10.8537
▁apparu	-10.8537
agenda	-10.8537
▁micro	-10.8537
lusieurs	-10.854
▁veille	-10.8552
▁imagin	-10.8575
▁comprennent	-10.8583
▁identifié	-10.8583
▁prudent	-10.8583
▁traduction	-10.8583
▁vérification	-10.8583
approuv	-10.8587
▁attentivement	-10.859
▁formelle	-10.8591
▁repris	-10.8592
▁essaie	-10.8603
▁substitu	-10.8628
▁sacrifi	-10.8628
▁Corée	-10.8628
utilité	-10.8629
attente	-10.863
▁communiste	-10.8657
▁frappe	-10.8674
▁injuste	-10.8674
▁japonais	-10.8674
▁prescription	-10.8674
▁venons	-10.8674
attentat	-10.8674
0.000	-10.8674
expose	-10.8674
▁feront	-10.8698
associer	-10.8709
▁néerlandais	-10.8719
Atlantique	-10.872
musulman	-10.872
▁originaire	-10.872
▁préventive	-10.872
idéal	-10.8721
▁Haut	-10.8722
organisme	-10.8748
▁décisionnel	-10.875
culture	-10.8764
▁franc	-10.8765
▁généraux	-10.8766
attendre	-10.8771
▁suit	-10.88
Chrétiens	-10.8813
▁2014	-10.8813
▁Slovénie	-10.8813
▁fabricant	-10.8813
▁plafond	-10.8813
▁suggère	-10.8813
▁avéré	-10.8813
insiste	-10.8829
▁concrétiser	-10.883
univers	-10.8854
▁parfait	-10.8858
▁Schulz	-10.886
▁impliquant	-10.886
▁libération	-10.886
amène	-10.886
vocation	-10.886
▁plate	-10.8861
▁étions	-10.8861
▁demandant	-10.8869
▁oriental	-10.8878
▁Pend	-10.8893
Alzheimer	-10.8907
▁félicitations	-10.8907
▁transmettre	-10.8907
▁Cher	-10.8907
interdire	-10.8912
▁égale	-10.8916
▁associations	-10.8917
▁situe	-10.892
▁exploitations	-10.8923
▁ciblée	-10.8927
▁triste	-10.8934
▁pension	-10.8941
▁cache	-10.8945
PC	-10.8945
▁progressiste	-10.8954
▁silence	-10.8954
▁sauver	-10.8954
▁bord	-10.8966
▁participent	-10.8968
▁promet	-10.899
ournée	-10.8991
▁dictature	-10.9001
▁simplifié	-10.9001
immunité	-10.9001
affirmation	-10.9002
▁consulté	-10.9005
▁terminé	-10.9023
▁distinct	-10.904
Herzégovine	-10.9049
imposition	-10.9049
▁clandestin	-10.9049
▁compréhensible	-10.9049
▁céréales	-10.9049
▁dégâts	-10.9049
▁remboursement	-10.9049
▁enceinte	-10.9049
Irak	-10.9049
autoriser	-10.9049
admission	-10.9051
▁réaffirme	-10.9052
▁individus	-10.9052
▁consistant	-10.9057
enjeu	-10.9061
élargir	-10.9094
▁Macédoine	-10.9097
▁réglementé	-10.9097
▁turque	-10.9097
▁Celui	-10.9097
▁2005	-10.9103
▁journée	-10.9122
▁manipul	-10.9145
▁souven	-10.9147
assassinat	-10.9148
optique	-10.9169
▁trouv	-10.917
▁semblable	-10.9177
▁carburant	-10.9193
▁prouvé	-10.9193
▁folle	-10.9193
▁inspir	-10.9193
▁modeste	-10.9195
▁assisté	-10.9199
▁attaques	-10.9199
▁profondeur	-10.9204
▁utilisent	-10.9206
▁foi	-10.9221
▁subvention	-10.9234
▁macro	-10.9241
cription	-10.9242
▁éleveurs	-10.9242
▁générer	-10.9242
▁iranien	-10.9242
▁rassemble	-10.9243
arriver	-10.9244
▁tenté	-10.9247
abus	-10.9252
▁découla	-10.9271
▁désaccord	-10.9283
individu	-10.9286
igno	-10.9288
ourd	-10.9289
▁Copenhague	-10.929
▁numéro	-10.929
▁piège	-10.929
▁reçoivent	-10.929
▁voulez	-10.929
▁vétérinaire	-10.929
impasse	-10.929
▁péril	-10.929
▁isolé	-10.929
gène	-10.9293
▁citoyenneté	-10.9295
angle	-10.9299
▁procéd	-10.93
étri	-10.9307
▁mentionne	-10.932
SA	-10.9327
Q	-10.9339
▁mercredi	-10.9339
▁xénophobie	-10.9339
▁précieuse	-10.9339
▁bateaux	-10.9339
obten	-10.934
armes	-10.9349
émettre	-10.9373
▁disponible	-10.9385
▁Fukushima	-10.9389
▁PESC	-10.9389
▁tolérance	-10.9389
7/	-10.9405
▁constatons	-10.9405
▁mettra	-10.9437
abolition	-10.9438
▁dizaines	-10.9438
▁déçu	-10.9438
▁judicieux	-10.9438
▁sectoriel	-10.9438
▁soulever	-10.9438
▁récession	-10.9438
▁amené	-10.944
joint	-10.9447
▁produisent	-10.9448
▁plaide	-10.9451
SEAE	-10.9488
▁instances	-10.9488
▁modifiant	-10.9488
▁employeurs	-10.9488
▁papier	-10.9488
▁kilo	-10.9488
▁fausse	-10.9488
▁attendu	-10.9489
incitation	-10.949
▁requiert	-10.9538
▁secret	-10.9538
▁pierre	-10.9538
▁faille	-10.9544
CS	-10.9557
épidémie	-10.9588
▁Naturellement	-10.9588
▁hommage	-10.9588
▁persuadé	-10.9588
▁prôn	-10.9588
▁corps	-10.9588
▁fournisseurs	-10.9588
▁implications	-10.9593
accueille	-10.9599
▁puni	-10.9609
attribu	-10.963
▁composante	-10.9639
▁précoce	-10.9639
▁réciproque	-10.9639
▁soutenant	-10.9639
actualité	-10.9639
▁satisfaisant	-10.9639
▁fermé	-10.964
occupation	-10.964
▁traditionnel	-10.964
▁planète	-10.9643
▁pensée	-10.9664
▁contract	-10.9681
▁conservateur	-10.9689
▁soviétique	-10.9689
▁tribunaux	-10.9689
▁Bureau	-10.969
▁entamé	-10.969
▁africaine	-10.9693
FEM	-10.9698
envisager	-10.9698
▁risqu	-10.973
IN	-10.9733
▁Slovaquie	-10.974
▁absurde	-10.974
honorable	-10.974
▁vivons	-10.974
▁concurrentiel	-10.9744
accomplir	-10.976
inscrire	-10.9792
▁anniversaire	-10.9792
▁fragile	-10.9792
▁islamique	-10.9792
▁perçu	-10.9792
▁répand	-10.9792
▁créant	-10.9792
▁torture	-10.9793
▁utilisateurs	-10.9793
environ	-10.9801
4-03	-10.9843
enthousiasme	-10.9843
▁FMI	-10.9843
▁intitulé	-10.9843
▁écoulé	-10.9843
▁bruit	-10.9843
▁nullement	-10.9845
▁indépenda	-10.9853
CO	-10.9855
▁accueilli	-10.9885
▁quotidien	-10.9889
▁recommand	-10.9892
▁incontestable	-10.9895
dûment	-10.9895
▁Kadhafi	-10.9895
▁diplomatie	-10.9895
▁déroulé	-10.9895
▁renvoi	-10.9895
▁devions	-10.9903
▁termin	-10.9907
▁administrations	-10.9908
▁indirecte	-10.9947
▁Zaïre	-10.9947
▁corriger	-10.9947
▁attentif	-10.9947
▁teneur	-10.9947
▁ultra	-10.9947
▁procur	-10.9948
▁naturelle	-10.9952
investir	-10.996
▁précision	-10.9966
▁pair	-10.9985
incapacité	-11
▁prudence	-11
▁énormément	-11
▁maîtrise	-11
▁reflét	-11
aviation	-11
▁examine	-11.0042
impulsion	-11.0052
▁faillite	-11.0052
▁naissance	-11.0052
▁persécution	-11.0052
▁recueilli	-11.0052
▁remplacé	-11.0052
▁équivalent	-11.0052
autonomie	-11.0052
▁abandonné	-11.0053
▁2004	-11.0053
▁détention	-11.0054
illon	-11.0055
▁ressource	-11.0065
▁victime	-11.0065
▁soutiennent	-11.0067
élev	-11.0095
▁Internet	-11.0105
▁Pacifique	-11.0105
▁fabrication	-11.0105
▁réglementer	-11.0105
▁sauvetage	-11.0105
▁Face	-11.0105
▁ignorer	-11.0107
▁soulign	-11.011
▁imparti	-11.014
▁ménage	-11.0153
Algérie	-11.0158
ambassade	-11.0158
▁Maintenant	-11.0158
▁insisté	-11.0158
▁nomination	-11.0158
▁ton	-11.0161
▁rejette	-11.02
▁réform	-11.0206
▁contradictoire	-11.0212
▁radioactifs	-11.0212
▁retiré	-11.0212
▁chrétienne	-11.0212
▁travaillons	-11.0212
introduis	-11.0266
▁mépris	-11.0266
▁rejoindre	-11.0266
▁salarial	-11.0266
▁souffrance	-11.0266
▁aspirations	-11.0266
▁enjeux	-11.0266
▁entrepreneurs	-11.0268
▁nommé	-11.0269
appliqu	-11.0283
▁éman	-11.0288
▁Norvège	-11.032
▁Taïwan	-11.032
▁manifesté	-11.032
▁renoncer	-11.032
▁résultant	-11.032
▁inclusive	-11.0323
▁BCE	-11.0336
oeuvre	-11.0338
▁réagi	-11.034
▁reven	-11.0349
aspir	-11.035
hypothèse	-11.0374
▁Genève	-11.0374
▁prévoyant	-11.0374
▁accusé	-11.0374
▁libyen	-11.0374
▁inciter	-11.0374
▁sauf	-11.0374
▁réfléchi	-11.0375
▁Eh	-11.039
enfance	-11.0399
école	-11.0404
alerte	-11.0416
▁halieutiques	-11.0429
▁réconciliation	-11.0429
▁transatlantique	-11.0429
▁douanier	-11.0429
▁sexuel	-11.0435
entraîne	-11.0447
▁poursuit	-11.0463
▁néfaste	-11.0484
▁rythme	-11.0484
▁standard	-11.0484
arrestation	-11.0484
▁capture	-11.0484
▁donnant	-11.0485
▁rentable	-11.0486
affront	-11.0487
▁attribué	-11.0491
▁prépare	-11.0526
▁revien	-11.0531
▁contamination	-11.0539
▁disparaît	-11.0539
▁essayé	-11.0539
▁perpétré	-11.0539
▁précieux	-11.0539
▁comparaison	-11.0539
▁persiste	-11.0539
▁sembl	-11.0585
▁secrétaire	-11.0594
▁fallu	-11.0594
▁disparu	-11.0594
▁intégrante	-11.0595
acheter	-11.0598
▁aliment	-11.0601
établi	-11.0618
ä	-11.065
▁tuberculose	-11.065
▁bloqué	-11.065
▁démence	-11.065
▁réviser	-11.065
▁résume	-11.0651
▁sentir	-11.0652
▁libérer	-11.0706
▁pragmatique	-11.0706
▁ratifié	-11.0706
▁Rien	-11.0706
▁déclin	-11.0707
▁communiquer	-11.0707
▁lancement	-11.0713
▁durement	-11.0717
▁soutiendra	-11.0736
▁forêt	-11.0738
▁professionnel	-11.0759
▁concurrent	-11.0759
optimis	-11.0762
atténuer	-11.0763
indemnisation	-11.0763
▁Sahara	-11.0763
▁confusion	-11.0763
▁croyons	-11.0763
épargne	-11.0763
▁côtière	-11.0763
▁déplacé	-11.0763
▁tenons	-11.0763
▁guide	-11.0763
▁certificat	-11.0773
▁enseignements	-11.078
Israël	-11.0789
▁observé	-11.079
▁souple	-11.0818
audiovisuel	-11.082
▁conviendrait	-11.082
▁permanence	-11.082
▁provoquer	-11.082
▁réjouir	-11.082
▁fréquent	-11.082
▁répété	-11.082
▁détect	-11.082
▁servent	-11.082
▁averti	-11.082
▁Quoi	-11.0822
▁plaid	-11.0827
▁correction	-11.0829
▁exploité	-11.0841
▁quitter	-11.0848
▁consomm	-11.087
▁réparti	-11.0875
éradication	-11.0877
▁Beaucoup	-11.0877
▁féminin	-11.0877
▁prisonniers	-11.0877
▁protège	-11.0877
▁posséd	-11.0877
▁dirigé	-11.0877
▁nourriture	-11.0877
▁mères	-11.0879
▁chercheurs	-11.0879
▁impôts	-11.0882
insul	-11.0892
▁affect	-11.0898
▁exclusive	-11.0918
▁profond	-11.0928
▁Certaine	-11.0934
▁industrialisé	-11.0934
▁pluralisme	-11.0934
▁renforçant	-11.0934
▁scolaire	-11.0934
▁transmission	-11.0934
▁septième	-11.0935
interroge	-11.0949
W	-11.0963
▁rejoins	-11.0992
▁échoué	-11.0992
▁sanctionn	-11.0996
▁sortie	-11.0998
systématiquement	-11.1012
▁affaibli	-11.1023
harmonie	-11.105
▁erroné	-11.105
▁Autrement	-11.105
▁Rome	-11.1059
venir	-11.1082
considér	-11.1108
▁apprécié	-11.1109
▁prévoient	-11.1109
▁roumain	-11.1109
▁tangible	-11.1109
attaché	-11.1109
▁Cuba	-11.1109
éclat	-11.111
▁suspension	-11.1113
▁écoles	-11.1117
région	-11.1141
parcours	-11.1142
▁sincère	-11.1151
excellence	-11.1168
▁Personne	-11.1168
▁bovins	-11.1168
▁controversé	-11.1168
▁examinons	-11.1168
▁offrant	-11.1168
▁protestation	-11.1168
▁suscité	-11.1168
▁forestier	-11.1168
4-00	-11.1168
▁Congo	-11.1168
▁client	-11.1168
▁allait	-11.1168
▁génère	-11.1169
▁lourds	-11.1173
▁élimin	-11.1198
positi	-11.1207
▁échapp	-11.1218
assassin	-11.1223
contrefaçon	-11.1227
▁Sommet	-11.1227
▁israélien	-11.1227
▁traçabilité	-11.1227
▁réfère	-11.1227
▁réglé	-11.1227
▁sollicit	-11.1227
▁heurt	-11.1227
aboutir	-11.1262
▁moral	-11.1279
▁Barnier	-11.1286
▁discriminatoire	-11.1286
▁productivité	-11.1286
▁intervenants	-11.1286
▁forum	-11.1286
éprouve	-11.1286
▁allez	-11.1287
▁irrégularités	-11.1288
Jeunesse	-11.129
accueillir	-11.1298
▁confronté	-11.134
▁demand	-11.1341
indicateur	-11.1342
▁Luxembourg	-11.1346
▁certitude	-11.1346
▁régulier	-11.1346
▁zéro	-11.1346
▁évoluer	-11.1346
▁gratuit	-11.1346
orienter	-11.1346
▁estimations	-11.1346
▁nôtre	-11.1346
▁invoqu	-11.1347
innoc	-11.1353
ommercialisation	-11.1375
▁Reding	-11.1406
▁confié	-11.1406
▁dérivés	-11.1406
▁marquage	-11.1406
▁pièce	-11.1406
▁volatilité	-11.1406
ó	-11.1406
▁Oomen	-11.1406
▁célébr	-11.1406
▁relevé	-11.1406
▁oublié	-11.1412
▁norme	-11.1459
▁ALDE	-11.1467
▁Birmanie	-11.1467
▁abeilles	-11.1467
▁scénario	-11.1467
▁absent	-11.1467
▁ignoré	-11.1467
▁garantissent	-11.1469
actuel	-11.1478
▁Lettonie	-11.1528
▁Yémen	-11.1528
▁biélorusse	-11.1528
▁législateur	-11.1528
▁fixation	-11.1528
▁serbe	-11.1528
▁brève	-11.1529
▁remet	-11.1559
▁Actuellement	-11.1589
▁préfère	-11.1589
▁regroup	-11.1589
▁rubrique	-11.1589
▁subissent	-11.1594
▁Act	-11.1595
▁régissa	-11.1639
▁stock	-11.1645
▁empêché	-11.1651
▁foyer	-11.1651
▁tabac	-11.1651
▁vendredi	-11.1651
▁victoire	-11.1651
▁voici	-11.1652
▁côte	-11.1656
▁intérimaire	-11.1713
▁alarmant	-11.1713
▁arrière	-11.1713
agression	-11.1714
▁grecque	-11.1717
informer	-11.1756
Ruijten	-11.1776
achèvement	-11.1776
enveloppe	-11.1776
▁Bangemann	-11.1776
▁contaminé	-11.1776
▁dictateur	-11.1776
▁disparition	-11.1776
▁tunisien	-11.1776
▁mixte	-11.1776
▁dépôt	-11.1776
imagine	-11.1786
exclure	-11.179
opérer	-11.1837
▁Fischler	-11.1839
▁concilier	-11.1839
▁phrase	-11.1839
▁proximité	-11.1839
▁égyptien	-11.1839
▁Conf	-11.1841
écho	-11.1842
▁allié	-11.1842
Ouest	-11.186
▁illégal	-11.1871
▁élabor	-11.189
▁composition	-11.1902
▁consultatif	-11.1902
▁figurant	-11.1902
▁joindre	-11.1902
▁Bâle	-11.1902
▁agents	-11.1902
FSE	-11.1902
▁mille	-11.1909
▁adressé	-11.191
▁gagne	-11.1917
▁organis	-11.1918
▁intégr	-11.193
▁négligeable	-11.1934
▁souffre	-11.1946
▁collectif	-11.1965
▁déposer	-11.1965
▁intéressés	-11.1965
▁loyale	-11.1965
▁revendication	-11.1965
▁Frontex	-11.1966
▁éloigné	-11.1966
▁meurtre	-11.1966
▁litige	-11.1966
▁massif	-11.1966
▁entités	-11.1966
4-1	-11.1966
▁restant	-11.197
▁entré	-11.1978
▁simultané	-11.203
ormément	-11.203
▁Londres	-11.203
▁dégradation	-11.203
▁englobe	-11.203
▁facture	-11.203
▁hélas	-11.203
▁mémoire	-11.203
▁spécificité	-11.203
▁trilogue	-11.203
▁pouvaient	-11.203
▁affronter	-11.203
informatique	-11.2031
▁fléau	-11.2047
▁âgé	-11.2065
▁participe	-11.2078
▁act	-11.2085
▁déploie	-11.2094
▁marginal	-11.2094
OCDE	-11.2094
Socialistes	-11.2094
productif	-11.2094
▁TACIS	-11.2094
▁assorti	-11.2094
▁disponibilité	-11.2094
▁protéines	-11.2094
▁réciprocité	-11.2094
▁spectre	-11.2094
▁peser	-11.2095
▁contrat	-11.2102
octroyer	-11.2145
▁confère	-11.2159
Euratom	-11.2159
▁Député	-11.2159
▁construit	-11.2159
▁symbole	-11.2159
▁inclut	-11.2159
▁bataille	-11.216
▁souplesse	-11.2161
emblée	-11.2199
appréciation	-11.2224
insuffisance	-11.2224
opposant	-11.2224
▁Madrid	-11.2224
▁alternatifs	-11.2224
▁mobile	-11.2224
▁valoir	-11.2224
▁rédaction	-11.2224
incendie	-11.2225
▁contractuel	-11.2235
▁écouter	-11.2237
▁envoie	-11.2238
▁exceptionnel	-11.2245
discrimination	-11.2278
▁Millénaire	-11.229
▁reproche	-11.229
immigré	-11.229
▁Unies	-11.2294
▁résidence	-11.2295
▁servi	-11.2299
▁vécu	-11.2306
▁soumett	-11.2351
insécurité	-11.2356
▁justification	-11.2356
avérer	-11.2356
▁machine	-11.2356
abstenir	-11.2423
▁Stockholm	-11.2423
▁caractérise	-11.2423
▁désignation	-11.2423
▁licence	-11.2423
▁précédé	-11.2423
▁restaurer	-11.2423
▁restrictive	-11.2423
▁symbolique	-11.2423
▁témoin	-11.2423
▁croate	-11.2423
équité	-11.2423
▁conteste	-11.2424
▁anticip	-11.2424
▁Grand	-11.2424
▁coopér	-11.2469
▁artificiel	-11.249
Arctique	-11.249
▁détruit	-11.249
▁libéré	-11.249
▁renouvellement	-11.249
▁motivé	-11.2491
exporter	-11.2491
▁témoign	-11.2491
▁devez	-11.2495
▁suspens	-11.2553
▁arbitraire	-11.2558
excédent	-11.2558
▁indiquant	-11.2558
▁douze	-11.2558
▁exploitant	-11.2558
emporte	-11.2564
ayons	-11.2568
▁étroit	-11.2589
ambiguïté	-11.2626
▁chaleureusement	-11.2626
▁fossé	-11.2626
▁fréquemment	-11.2626
▁idéologique	-11.2626
▁juridiction	-11.2626
▁médicaux	-11.2626
▁policière	-11.2626
▁propriétaire	-11.2626
▁universités	-11.2626
▁solidaire	-11.2626
▁codification	-11.2626
hydr	-11.2626
occupe	-11.2629
Heure	-11.2638
▁sanction	-11.2644
axe	-11.2646
▁compagnie	-11.2648
▁renouvelable	-11.2649
▁statu	-11.2676
q	-11.2683
effectue	-11.2687
▁Bonino	-11.2694
▁apparemment	-11.2694
▁privatisation	-11.2694
▁préjudiciable	-11.2694
▁téléphone	-11.2694
alliance	-11.2695
▁apparten	-11.2727
absolu	-11.2762
▁énergique	-11.2763
▁attiré	-11.2763
▁compenser	-11.2763
▁concours	-11.2763
▁incroyable	-11.2763
▁publier	-11.2763
Burton	-11.2763
▁farine	-11.2763
arrivée	-11.2781
▁restriction	-11.279
▁Rompuy	-11.2833
▁albanais	-11.2833
▁instauré	-11.2833
▁judicieuse	-11.2833
▁surcroît	-11.2833
▁craign	-11.2833
▁Européen	-11.2861
▁probable	-11.2886
Européens	-11.2899
▁inadmissible	-11.2903
▁matériaux	-11.2903
▁séparation	-11.2903
▁transformé	-11.2903
▁éducatif	-11.2903
▁cellule	-11.2903
étonne	-11.2905
▁interrompu	-11.2905
▁reviendrai	-11.2905
▁tué	-11.2906
▁patient	-11.2933
▁caractérisé	-11.2973
▁frontalière	-11.2973
▁hasard	-11.2973
▁irresponsable	-11.2973
▁légumes	-11.2973
▁pénurie	-11.2973
▁sensibilisation	-11.2973
▁troupes	-11.2973
▁rationnelle	-11.2973
▁résumé	-11.2973
▁partiellement	-11.2973
▁évité	-11.2974
▁coordonn	-11.2984
▁intensif	-11.3006
affectation	-11.3014
expansion	-11.3044
productive	-11.3044
▁Quatrièmement	-11.3044
▁consentement	-11.3044
▁yougoslave	-11.3044
▁éventail	-11.3044
accumul	-11.3044
▁préval	-11.3045
▁section	-11.3046
▁audition	-11.3046
▁préparatoire	-11.3115
▁Burundi	-11.3115
▁découvert	-11.3115
▁ministère	-11.3115
▁précaution	-11.3115
▁essayons	-11.3115
▁rêve	-11.3116
▁trente	-11.3116
▁vieille	-11.3118
chemin	-11.3129
▁progresse	-11.3187
Azerbaïdjan	-11.3187
Observatoire	-11.3187
éradiquer	-11.3187
▁1989	-11.3187
▁Golfe	-11.3187
▁Kinnock	-11.3187
▁bétail	-11.3187
▁dynamis	-11.3187
▁liquidité	-11.3187
▁minoritaire	-11.3187
▁pesticides	-11.3187
▁pourparlers	-11.3187
▁progression	-11.3187
▁soja	-11.3187
▁dissimul	-11.3187
▁pratiqué	-11.3187
▁fardeau	-11.3187
▁essais	-11.3188
émotion	-11.3188
▁carrière	-11.3188
▁charte	-11.3188
▁initial	-11.3191
▁louable	-11.3202
ingérence	-11.326
▁conviens	-11.326
▁diplôme	-11.326
▁délivrance	-11.326
▁intense	-11.326
▁tolérer	-11.326
▁2015	-11.326
▁superficie	-11.326
invitation	-11.3261
active	-11.3277
▁Deuxième	-11.3316
▁arriv	-11.3323
aquaculture	-11.3333
▁allusion	-11.3333
▁concevoir	-11.3333
▁parviendrons	-11.3333
▁primaire	-11.3333
▁propice	-11.3333
▁gén	-11.3373
▁doive	-11.3388
expertise	-11.3406
▁bulgare	-11.3406
▁clôture	-11.3406
▁rigoureux	-11.3406
▁suspendue	-11.3406
communautaris	-11.3406
▁manqué	-11.3406
▁baltes	-11.3406
▁désigné	-11.3406
▁ralenti	-11.3406
▁radioactive	-11.3407
▁réduir	-11.3423
▁substantiel	-11.3439
▁mutuel	-11.3473
enseign	-11.3478
éligibilité	-11.348
▁Bahreïn	-11.348
▁assurant	-11.348
▁détérioration	-11.348
▁immigrants	-11.348
▁intolérable	-11.348
▁sympathie	-11.348
▁ukrainien	-11.348
envergure	-11.348
▁divergent	-11.348
▁achevé	-11.348
extraction	-11.3481
respect	-11.3484
▁suppos	-11.3507
tendent	-11.3514
pprofondissement	-11.3532
▁analys	-11.3535
interromp	-11.3553
▁émett	-11.3554
▁indubitable	-11.3555
ACAC	-11.3555
Indonésie	-11.3555
▁félicitons	-11.3555
▁illégaux	-11.3555
▁lituanien	-11.3555
▁négligé	-11.3555
▁personnalité	-11.3555
Ivoire	-11.3555
exacerb	-11.3555
▁abandonner	-11.3555
▁sépare	-11.3555
▁mariage	-11.3555
▁Côte	-11.3555
asser	-11.3573
▁PHARE	-11.363
▁circuler	-11.363
▁distingue	-11.363
▁expressément	-11.363
▁tremblement	-11.363
▁troubles	-11.363
▁rémunéré	-11.363
▁fuite	-11.363
▁autobus	-11.363
essayer	-11.3637
animaux	-11.3637
comme	-11.365
NGL	-11.3706
intègre	-11.3706
▁Loukachenko	-11.3706
▁Oettinger	-11.3706
▁armés	-11.3706
▁déployer	-11.3706
▁fossiles	-11.3706
▁gaspillage	-11.3706
▁toxiques	-11.3706
▁tarifs	-11.3706
▁atout	-11.3707
PME	-11.3714
entrepreneur	-11.3779
▁catégorique	-11.3782
abattage	-11.3782
antibiotiques	-11.3782
déréglementation	-11.3782
▁Business	-11.3782
▁Chacun	-11.3782
▁dégagé	-11.3782
▁marocain	-11.3782
▁proclam	-11.3782
payeur	-11.3787
émergence	-11.3787
EEE	-11.379
▁intelligent	-11.3808
▁fréquence	-11.3859
▁inefficace	-11.3859
▁massacre	-11.3859
▁néolibéral	-11.3859
▁visibilité	-11.3859
▁terrestres	-11.3859
▁Soy	-11.3859
ixième	-11.3923
▁ECR	-11.3937
▁aimerions	-11.3937
▁cofinancement	-11.3937
▁contingent	-11.3937
▁polluant	-11.3937
▁printemps	-11.3937
▁procède	-11.3937
▁prospère	-11.3937
hésite	-11.3937
▁nominal	-11.3938
▁pétition	-11.3999
ë	-11.4015
▁lendemain	-11.4015
▁manifestants	-11.4015
▁redevance	-11.4015
▁soigneusement	-11.4015
expulsion	-11.4015
ù	-11.4089
épreuve	-11.4094
▁catastrophique	-11.4094
▁franchement	-11.4094
▁privilège	-11.4094
▁religieux	-11.4094
▁spéciaux	-11.4094
▁stipule	-11.4094
▁évitant	-11.4094
▁billet	-11.4094
▁1991	-11.4094
▁détourne	-11.4095
▁bassin	-11.4096
▁conduir	-11.4117
actif	-11.4147
approfondir	-11.4165
▁exhort	-11.4167
▁améliorant	-11.4173
▁boeuf	-11.4173
▁feuille	-11.4173
▁notable	-11.4174
▁calme	-11.4177
inspire	-11.4253
▁Campanie	-11.4253
▁complété	-11.4253
▁restreint	-11.4253
▁surface	-11.4253
▁autocar	-11.4253
▁Delors	-11.4253
▁exigé	-11.4255
▁diagnostic	-11.4334
▁homosexuel	-11.4334
▁infligé	-11.4334
▁intéressées	-11.4334
▁parvenons	-11.4334
▁recrutement	-11.4334
▁soupçon	-11.4334
▁suspendre	-11.4334
▁voulait	-11.4334
▁observateurs	-11.4334
▁Malte	-11.4334
▁ressenti	-11.4335
exhorte	-11.4341
▁conserve	-11.4365
Iraq	-11.438
▁facilite	-11.4392
aménagement	-11.4415
assainissement	-11.4415
▁Finalement	-11.4415
▁Fondation	-11.4415
▁Haye	-11.4415
▁Nouvelle	-11.4415
▁diminué	-11.4415
▁prérogative	-11.4415
▁voulions	-11.4415
▁étudié	-11.4415
automne	-11.4415
▁profil	-11.4416
écrire	-11.4416
▁modifie	-11.4431
▁complément	-11.4465
▁Lampedusa	-11.4497
▁Singapour	-11.4497
▁décourage	-11.4497
▁méridional	-11.4497
▁superflu	-11.4497
▁vigilant	-11.4497
▁consolidé	-11.4497
▁paneuropéen	-11.4497
▁récolte	-11.4497
▁découlent	-11.4497
achever	-11.45
▁abordable	-11.4508
hypocrisie	-11.458
▁contenant	-11.458
▁créativité	-11.458
▁pakistanais	-11.458
▁proviennent	-11.458
▁pétrolière	-11.458
▁subordonn	-11.458
▁volontiers	-11.458
▁équivoque	-11.458
▁venez	-11.458
endettement	-11.458
▁manœuvre	-11.458
▁potable	-11.458
▁divisé	-11.4591
échappe	-11.4592
chrétien	-11.4659
▁marchand	-11.4663
indemnité	-11.4663
pollueur	-11.4663
▁fructueuse	-11.4663
▁redoubler	-11.4663
▁stabiliser	-11.4663
▁veuille	-11.4663
▁sphère	-11.4663
illusion	-11.4665
▁malheur	-11.4674
▁aidé	-11.468
▁confirm	-11.4709
▁surveill	-11.4729
8/96	-11.4747
▁autrichien	-11.4747
▁indéniable	-11.4747
9/96	-11.4747
espérance	-11.4747
existait	-11.4747
œufs	-11.4747
▁SAVE	-11.4747
▁comptable	-11.4747
▁engendré	-11.4747
▁quiconque	-11.4747
2/96	-11.4747
▁débouché	-11.4747
▁paramètres	-11.4747
▁rédiger	-11.4747
▁manoeuvre	-11.4747
▁tracteurs	-11.4747
▁travailleuses	-11.4747
▁Martin	-11.4747
▁mardi	-11.4748
▁concern	-11.4767
ayez	-11.4779
3/96	-11.4832
5/96	-11.4832
Justice	-11.4832
interprète	-11.4832
▁NUTS	-11.4832
▁aggravé	-11.4832
▁conféré	-11.4832
▁dépourvu	-11.4832
▁prolongation	-11.4832
▁routière	-11.4832
▁souffert	-11.4832
▁Rocard	-11.4832
▁stress	-11.4832
ontrairement	-11.4911
0/96	-11.4917
6/96	-11.4917
Occident	-11.4917
inconvénient	-11.4917
jacentes	-11.4917
utodétermination	-11.4917
▁Tribunal	-11.4917
▁craindre	-11.4917
▁exhaustive	-11.4917
▁philosophie	-11.4917
▁scrupule	-11.4917
▁utilitaires	-11.4917
▁veillant	-11.4917
▁applaudi	-11.4917
extradition	-11.4917
adhère	-11.4917
▁votant	-11.4918
▁phare	-11.4918
Acte	-11.4951
Andr	-11.4981
1/96	-11.5003
▁antérieure	-11.5003
▁horizontale	-11.5003
▁majoritaire	-11.5003
▁2050	-11.5003
▁Accord	-11.5003
▁fluctuation	-11.5003
▁grippe	-11.5003
▁inhérent	-11.5003
▁saluons	-11.5004
▁parvient	-11.5004
7/96	-11.509
officier	-11.509
éloigne	-11.509
▁malentendu	-11.509
▁récompens	-11.509
▁confort	-11.509
▁insulaires	-11.509
▁chantier	-11.5091
dessous	-11.5094
posait	-11.5134
▁appren	-11.5158
Explication	-11.5178
▁guichet	-11.5178
▁génocide	-11.5178
▁incompatible	-11.5178
▁inquiet	-11.5178
▁plaît	-11.5178
▁protéagineux	-11.5178
▁traîne	-11.5178
▁écosystèmes	-11.5178
assumer	-11.521
▁déclar	-11.5239
interconnexion	-11.5267
▁angulaire	-11.5267
▁rapidité	-11.5267
▁réhabilitation	-11.5267
▁réticence	-11.5267
économiser	-11.5267
▁commande	-11.5267
intensification	-11.5267
▁desquels	-11.5267
allouer	-11.5267
▁généré	-11.5267
▁veto	-11.5267
allonge	-11.5268
▁inadéquat	-11.5288
▁animal	-11.5317
acquérir	-11.5356
apparition	-11.5356
▁Collège	-11.5356
▁Fédéra	-11.5356
▁clarification	-11.5356
▁comitologie	-11.5356
▁confond	-11.5356
▁dimanche	-11.5356
▁radiodiffusion	-11.5356
▁reproduise	-11.5356
▁sensibilité	-11.5356
▁titulaire	-11.5356
▁transnationale	-11.5356
▁inhumain	-11.5356
▁ressemble	-11.5356
▁jouissent	-11.5356
▁tissu	-11.5356
accuse	-11.5356
▁langage	-11.5356
Estonie	-11.542
▁préside	-11.5426
annulation	-11.5446
apiculture	-11.5446
atmosphère	-11.5446
prolifération	-11.5446
▁Personnellement	-11.5446
▁déplorable	-11.5446
▁kurde	-11.5446
▁rectificatif	-11.5446
▁sensibiliser	-11.5446
▁théorie	-11.5446
Essen	-11.5534
▁sauvage	-11.5537
aptitude	-11.5537
embryon	-11.5537
enlèvement	-11.5537
église	-11.5537
▁Barcelone	-11.5537
▁Règlement	-11.5537
▁Zimbabwe	-11.5537
▁exemplaire	-11.5537
▁stupéfiants	-11.5537
▁formé	-11.5537
▁légers	-11.5537
▁rentabilité	-11.5537
▁nuire	-11.5537
▁jouir	-11.5539
▁contourn	-11.5539
dépendant	-11.5545
exécute	-11.5558
▁convainc	-11.5588
intolérance	-11.5629
▁Noël	-11.5629
▁PECO	-11.5629
▁contrepartie	-11.5629
▁facilitation	-11.5629
▁prématuré	-11.5629
▁prévisible	-11.5629
office	-11.5629
▁minimis	-11.5629
▁Green	-11.5629
tendant	-11.564
▁ample	-11.5654
▁fédér	-11.5669
▁étrange	-11.5673
(96)0	-11.5721
afflux	-11.5721
insistance	-11.5721
▁Caucase	-11.5721
▁Dayton	-11.5721
▁Liechtenstein	-11.5721
▁XXIe	-11.5721
▁arctique	-11.5721
▁atmosphérique	-11.5721
▁dispens	-11.5721
▁modéré	-11.5721
▁psychologique	-11.5721
▁systémique	-11.5721
4/96	-11.5721
▁Rehn	-11.5721
▁donnons	-11.5721
▁panel	-11.5721
▁prompt	-11.5722
appartenance	-11.577
▁disproportionné	-11.5799
expiration	-11.5815
▁confédéral	-11.5815
▁fidèle	-11.5815
▁géopolitique	-11.5815
▁réputation	-11.5815
▁tibétain	-11.5815
▁doigt	-11.5815
▁déception	-11.5815
▁exécuté	-11.5815
Ecofin	-11.5815
incompréhensible	-11.5909
▁classique	-11.5909
▁comprenant	-11.5909
▁dominante	-11.5909
▁gagné	-11.5909
▁municipal	-11.5909
▁touchant	-11.5909
▁vigoureuse	-11.5909
▁gestionnaires	-11.5909
entretenir	-11.5909
▁fixant	-11.5909
▁couvrant	-11.5909
▁permettraient	-11.5909
initi	-11.5917
▁appuyé	-11.6004
▁chypriote	-11.6004
▁conjoncture	-11.6004
▁entraînant	-11.6004
▁professeur	-11.6004
▁réjouit	-11.6004
idéologie	-11.6004
▁révéler	-11.6004
▁moratoire	-11.6004
aligner	-11.6004
▁respectueuse	-11.6004
▁parcourir	-11.6004
▁mutation	-11.6004
▁maximal	-11.606
architecture	-11.61
intensité	-11.61
▁Colombie	-11.61
▁Congrès	-11.61
▁MEDA	-11.61
▁PNR	-11.61
▁Rwanda	-11.61
▁comprenons	-11.61
▁magnifique	-11.61
▁originale	-11.61
▁validité	-11.61
▁supranational	-11.61
▁syndical	-11.61
▁surprenant	-11.61
▁formul	-11.6103
▁fameu	-11.6177
▁attentive	-11.6181
▁chasse	-11.6185
avortement	-11.6197
▁efforcé	-11.6197
▁reçoit	-11.6197
▁slovaque	-11.6197
▁respectueux	-11.6197
CFP	-11.6198
▁adhér	-11.6206
▁discute	-11.6229
▁diminue	-11.623
▁producteur	-11.624
atteindr	-11.6244
octobre	-11.6249
▁consist	-11.6256
habitat	-11.6271
▁Américains	-11.6295
▁Berlin	-11.6295
▁David	-11.6295
▁Füle	-11.6295
▁conférer	-11.6295
▁disposions	-11.6295
▁impatience	-11.6295
▁jurisprudence	-11.6295
▁neutralité	-11.6295
▁progressé	-11.6295
▁retenir	-11.6295
▁ridicule	-11.6295
▁synonyme	-11.6295
▁afghan	-11.6295
▁motivation	-11.6295
▁protectionnisme	-11.6296
essence	-11.6296
aggravation	-11.6394
héritage	-11.6394
▁défavorable	-11.6394
▁fragmentation	-11.6394
▁intensive	-11.6394
▁prolongé	-11.6394
▁pénible	-11.6394
▁conditionnalité	-11.6394
▁légaux	-11.6394
Guinée	-11.6394
primé	-11.6405
enregistrer	-11.641
▁présidé	-11.6421
▁additionnel	-11.6494
▁interprété	-11.6494
▁pertinence	-11.6494
▁perturbation	-11.6494
▁réchauffement	-11.6494
▁Népal	-11.6494
▁canadien	-11.6494
▁décevant	-11.6494
▁Madère	-11.6495
▁réparation	-11.6495
▁optimiste	-11.6495
▁rallie	-11.6498
apparaît	-11.6551
habitants	-11.6552
▁prononce	-11.6587
intimidation	-11.6595
oxyde	-11.6595
▁GATT	-11.6595
▁Heureusement	-11.6595
▁Renault	-11.6595
▁Sarajevo	-11.6595
▁authentique	-11.6595
▁imposant	-11.6595
▁préliminaire	-11.6595
étiquette	-11.6595
associe	-11.6619
registre	-11.6639
4-04	-11.6697
instruction	-11.6698
ographie	-11.6698
▁Malmström	-11.6698
▁clonage	-11.6698
▁fabriqué	-11.6698
▁humides	-11.6698
▁autoritaire	-11.6698
▁débarrass	-11.6698
▁cercle	-11.6698
▁journaux	-11.6698
exposition	-11.6699
▁produise	-11.6781
impossibilité	-11.6801
interopérabilité	-11.6801
▁Galileo	-11.6801
▁Mauritanie	-11.6801
▁avouer	-11.6801
▁blessés	-11.6801
▁condoléances	-11.6801
▁disposant	-11.6801
▁législature	-11.6801
▁souffrir	-11.6801
▁trafiquants	-11.6801
▁suivent	-11.6801
insérer	-11.6801
▁courrier	-11.6801
NACE	-11.6801
encourage	-11.6804
▁radical	-11.6887
Ouganda	-11.6905
▁attrayant	-11.6905
▁autochtones	-11.6905
▁détruire	-11.6905
▁imputable	-11.6905
▁repouss	-11.6905
▁spectaculaire	-11.6905
▁ultime	-11.6905
/2011	-11.6905
▁blanchiment	-11.6905
▁présidentielles	-11.6905
▁racine	-11.6905
▁raciste	-11.6906
▁exporté	-11.6906
affecte	-11.6971
exposé	-11.6971
▁vraisemblable	-11.701
▁collectivité	-11.701
▁prostitution	-11.701
▁soldats	-11.701
▁soudain	-11.701
▁cinquante	-11.701
▁Brok	-11.701
▁combinaison	-11.701
exonér	-11.7011
fondamentalement	-11.7071
▁véhicule	-11.7078
▁diffère	-11.7116
▁impérative	-11.7116
injustice	-11.7116
▁Guerre	-11.7116
▁Liban	-11.7116
▁branche	-11.7116
▁coalition	-11.7116
▁croient	-11.7116
▁formidable	-11.7116
▁inapproprié	-11.7116
▁paternité	-11.7116
▁performant	-11.7116
▁week	-11.7116
▁traduis	-11.7116
▁Herman	-11.7116
▁échoue	-11.7116
fondé	-11.7187
▁atteign	-11.7188
accessibilité	-11.7224
innombrables	-11.7224
▁Caraïbes	-11.7224
▁Christodoulou	-11.7224
▁Orbán	-11.7224
▁Papouasie	-11.7224
▁précarité	-11.7224
▁Nobel	-11.7224
▁ratifier	-11.7224
▁invitons	-11.7224
OGM	-11.7224
▁remonte	-11.7225
▁émine	-11.7227
empreinte	-11.7333
emprisonnement	-11.7333
interlocuteur	-11.7333
▁Mitchell	-11.7333
▁Seychelles	-11.7333
▁Tibet	-11.7333
▁afférent	-11.7333
▁délivré	-11.7333
▁génériques	-11.7333
▁légiférer	-11.7333
▁progressif	-11.7333
▁république	-11.7333
▁secrétariat	-11.7333
▁montagne	-11.7333
▁provient	-11.7333
▁résister	-11.7333
▁escompt	-11.7333
▁suivra	-11.7343
acquitter	-11.7443
éventualité	-11.7443
▁Palestine	-11.7443
▁facilitant	-11.7443
▁indigènes	-11.7443
▁pouvions	-11.7443
▁remède	-11.7443
▁soutenable	-11.7443
▁stimulant	-11.7443
▁préférentiel	-11.7443
Bendit	-11.7443
alléger	-11.7545
accroît	-11.7549
▁bouleverse	-11.7554
(95)0	-11.7554
▁désespéré	-11.7554
Écosse	-11.7554
▁admissible	-11.7554
▁apparaissent	-11.7554
▁bombe	-11.7554
▁divorce	-11.7554
▁globaux	-11.7554
▁insistant	-11.7554
▁insistons	-11.7554
▁méfiance	-11.7554
▁refonte	-11.7554
▁Cohn	-11.7554
▁irréaliste	-11.7666
▁médiatique	-11.7666
▁Fontaine	-11.7666
▁Simpson	-11.7666
▁ministériel	-11.7666
ñ	-11.778
▁Oostlander	-11.778
▁confrontation	-11.778
▁leadership	-11.778
▁perception	-11.778
▁promouvant	-11.778
honorer	-11.778
▁atomique	-11.778
▁installé	-11.778
proportionnalité	-11.778
PEV	-11.778
agriculteur	-11.7891
▁rattrap	-11.7895
exprimant	-11.7895
hectare	-11.7895
ysfonctionnement	-11.7895
▁Gauzès	-11.7895
▁compatibilité	-11.7895
▁converti	-11.7895
▁préservé	-11.7895
▁suffrage	-11.7895
▁tactique	-11.7895
▁augmentant	-11.7895
▁enseignants	-11.7895
▁province	-11.7895
▁focalis	-11.7895
instaure	-11.7922
▁résoudr	-11.7947
onsidérant	-11.7985
gagnant	-11.8011
esclavage	-11.8011
explosion	-11.8011
▁Palestiniens	-11.8011
▁clinique	-11.8011
▁conversion	-11.8011
▁intégralement	-11.8011
▁perfection	-11.8011
ş	-11.8613
ă	-11.9255
Î	-11.9388
+	-11.994
č	-12.0228
š	-12.0675
ł	-12.0829
ã	-12.0986
ń	-12.1144
]	-12.368
%	-12.3743
ė	-12.4319
ć	-12.4768
ß	-12.738
ø	-12.7683
Á	-12.8318
•	-12.9724
ú	-13.136
Č	-13.2291
ì	-13.3873
ę	-13.3873
ž	-13.5753
ò	-13.6467
ř	-13.6467
=	-13.7236
ū	-13.7236
ő	-13.8979
а	-13.8979
£	-13.9979
о	-14.109
ţ	-14.234
@	-14.234
Α	-14.234
е	-14.234
ś	-14.3768
т	-14.3768
_	-14.3768
å	-14.5435
ī	-14.5435
Œ	-14.5435
ż	-14.5435
с	-14.5435
§	-14.7435
р	-14.9935
Ô	-14.9935
и	-14.9935
α	-14.9935
ρ	-14.9935
τ	-14.9935
в	-14.9935
к	-15.3268
ш	-15.3268
ź	-15.3268
ч	-15.3268
л	-15.3268
Β	-15.8268
$	-15.8268
õ	-15.8268
ņ	-15.8268
˗	-15.8268
Ο	-15.8268
й	-15.8268
у	-15.8268
я	-15.8268
È	-15.8268
ь	-15.8268
з	-16.8233
Ő	-16.8234
Ł	-16.8235
ľ	-16.8236
\	-16.8237
χ	-16.8238
ο	-16.8239
ή	-16.824
έ	-16.8241
ά	-16.8242
Υ	-16.8243
Κ	-16.8244
ǎ	-16.8245
ı	-16.8246
Â	-16.8247
ň	-16.8248
ą	-16.8249
н	-16.825
π	-16.8251
Ø	-16.8252
Ş	-16.8253
ý	-16.8254
Đ	-16.8255
Ö	-16.8256
ğ	-16.8257
Ţ	-16.8258
æ	-16.8259
Ê	-16.826
Ç	-16.8261
Š	-16.8262
[	-16.8263
«	-16.8264
œ	-16.8265
î	-16.8266
û	-16.8267
ί	-16.8268
ν	-16.8268
м	-16.8268
Ð	-16.8268
Ś	-16.8268
Н	-16.8268
г	-16.8268
<	-16.8268
ā	-16.8268
ō	-16.8268
*	-16.8268
¡	-16.8268
Ó	-16.8268
Ü	-16.8268
Ć	-16.8268
ď	-16.8268
ē	-16.8268
ě	-16.8268
Ε	-16.8268
γ	-16.8268
ε	-16.8268
ι	-16.8268
κ	-16.8268
О	-16.8268
П	-16.8268
Т	-16.8268
д	-16.8268
ж	-16.8268
ы	-16.8268
ș	-16.8268
ç	-16.8268
п	-16.8268
