<unk>	0
<pad>	0
<s>	0
</s>	0
▁the	-2.83941
,	-3.17424
.	-3.45072
▁of	-3.51004
▁to	-3.60985
▁and	-3.72697
▁in	-3.97202
s	-4.00382
▁a	-4.24727
▁that	-4.30442
▁is	-4.31406
▁for	-4.63075
▁I	-4.6916
▁on	-4.81717
▁be	-4.92309
▁this	-4.96398
▁we	-5.02759
▁are	-5.11956
▁it	-5.15864
▁have	-5.21768
▁European	-5.24111
▁not	-5.24176
▁with	-5.28472
ing	-5.29004
▁which	-5.29442
▁as	-5.30018
▁The	-5.41385
▁by	-5.47004
▁will	-5.49992
'	-5.50936
-	-5.53723
▁has	-5.63096
ed	-5.66836
▁-	-5.81057
▁an	-5.85038
▁Mr	-5.8874
▁at	-5.90755
▁Commission	-5.91785
▁should	-5.93898
▁also	-5.93946
▁	-5.9627
▁would	-5.99096
▁all	-5.99274
d	-6.00517
▁from	-6.01719
▁must	-6.05737
▁President	-6.07399
▁Union	-6.07812
ly	-6.12933
▁We	-6.1299
▁our	-6.15319
▁but	-6.15617
▁EU	-6.19109
▁report	-6.19647
▁Member	-6.19738
▁been	-6.20816
▁Parliament	-6.21613
▁(	-6.27467
▁It	-6.28084
▁can	-6.28265
▁States	-6.30446
e	-6.30826
)	-6.32388
▁more	-6.33221
▁was	-6.36579
▁or	-6.36637
▁its	-6.37252
▁their	-6.38489
▁you	-6.39443
▁Europe	-6.41819
▁very	-6.44526
▁do	-6.45635
▁In	-6.45646
▁there	-6.46095
▁This	-6.49201
▁like	-6.49384
▁these	-6.51492
▁Council	-6.52168
▁one	-6.54867
▁need	-6.55145
▁so	-6.56154
▁countries	-6.5664
▁important	-6.58297
▁policy	-6.60948
▁they	-6.61087
▁other	-6.63228
▁who	-6.65456
▁people	-6.65601
▁because	-6.66114
:	-6.67219
n	-6.67431
▁about	-6.7073
▁what	-6.73381
▁us	-6.73459
▁support	-6.73773
▁time	-6.74135
▁new	-6.74324
▁only	-6.7616
▁economic	-6.76727
▁my	-6.82521
▁out	-6.82645
al	-6.82716
▁no	-6.84174
r	-6.84582
y	-6.85661
▁if	-6.85899
▁between	-6.86513
▁up	-6.86552
▁into	-6.89185
▁make	-6.90593
▁such	-6.9079
t	-6.9136
▁am	-6.92032
▁work	-6.93466
▁take	-6.94393
▁now	-6.95613
?	-6.96554
▁those	-6.97529
▁rights	-6.97776
p	-6.97806
er	-6.99946
▁when	-7.04075
▁market	-7.04956
▁social	-7.05709
▁some	-7.05955
▁therefore	-7.06838
▁believe	-7.07831
in	-7.09185
▁made	-7.09815
▁any	-7.09907
▁political	-7.11702
;	-7.12023
▁being	-7.12944
▁financial	-7.13178
c	-7.13379
▁fact	-7.14551
▁them	-7.14806
▁think	-7.14967
▁development	-7.15364
▁'	-7.17202
▁against	-7.19235
▁were	-7.19525
▁than	-7.20958
▁A	-7.21887
▁measures	-7.22306
▁way	-7.22391
m	-7.2289
a	-7.24118
▁public	-7.24407
▁many	-7.24426
▁order	-7.24564
▁citizens	-7.25025
▁well	-7.25382
▁proposal	-7.25606
▁human	-7.26658
▁debate	-7.2706
g	-7.27253
▁future	-7.27399
▁agreement	-7.27963
▁question	-7.29164
▁Commissioner	-7.29543
▁situation	-7.30114
es	-7.30258
▁say	-7.31264
▁first	-7.31387
▁However	-7.31733
▁national	-7.31971
▁ensure	-7.33414
▁here	-7.34923
▁country	-7.35855
▁point	-7.36017
▁just	-7.36337
▁That	-7.36346
▁under	-7.36507
▁possible	-7.36631
▁right	-7.37656
▁over	-7.37879
▁energy	-7.37885
▁same	-7.38434
▁cannot	-7.38707
▁level	-7.39482
▁could	-7.39729
▁cooperation	-7.40286
▁Committee	-7.40583
▁part	-7.40624
▁Madam	-7.41075
▁particular	-7.4144
▁vote	-7.41591
▁favour	-7.42696
▁As	-7.42924
▁today	-7.4296
▁re	-7.43358
▁clear	-7.4339
ation	-7.43534
or	-7.43553
▁years	-7.43713
▁S	-7.43857
▁common	-7.43969
▁even	-7.44152
u	-7.44232
▁crisis	-7.44354
▁two	-7.45357
▁most	-7.4598
▁know	-7.46493
▁issue	-7.46761
▁area	-7.46851
▁put	-7.46966
▁where	-7.47048
▁already	-7.47437
▁resolution	-7.47534
▁system	-7.47579
re	-7.47686
▁does	-7.47859
▁me	-7.48219
▁voted	-7.48395
▁want	-7.48866
▁good	-7.49296
▁budget	-7.49435
▁use	-7.49612
▁international	-7.49851
▁sector	-7.51278
▁had	-7.51333
▁still	-7.52959
▁hope	-7.53012
▁much	-7.53674
▁year	-7.53772
▁both	-7.53797
▁said	-7.53954
▁see	-7.54689
ic	-7.54795
▁view	-7.55565
▁how	-7.56329
▁too	-7.56792
ar	-7.57343
▁There	-7.57782
▁within	-7.57928
▁problem	-7.58789
it	-7.58811
▁necessary	-7.59874
en	-7.60527
▁respect	-7.60613
▁protection	-7.61107
▁number	-7.61222
▁process	-7.61239
▁through	-7.61276
▁own	-7.61546
▁taken	-7.61893
▁place	-7.62405
▁case	-7.62684
▁trade	-7.63378
l	-7.64132
▁Mrs	-7.64301
▁information	-7.64559
▁why	-7.65088
▁action	-7.65705
▁example	-7.6644
▁world	-7.67281
▁able	-7.67383
▁he	-7.68108
▁C	-7.68816
▁women	-7.68969
▁without	-7.6911
▁course	-7.69342
▁particularly	-7.70287
▁last	-7.70524
▁security	-7.70875
▁means	-7.71655
▁end	-7.7181
▁far	-7.72462
▁Treaty	-7.7291
▁his	-7.73393
▁long	-7.73676
▁set	-7.73794
▁Community	-7.73937
▁rapporteur	-7.74021
▁law	-7.74031
b	-7.74163
▁legal	-7.74182
▁problems	-7.74185
▁may	-7.7459
▁help	-7.7482
▁de	-7.75039
ion	-7.75365
▁areas	-7.75609
ur	-7.75879
i	-7.76491
▁agree	-7.77285
▁role	-7.77447
o	-7.78213
▁your	-7.79202
f	-7.79547
▁gentlemen	-7.80845
▁programme	-7.81207
▁given	-7.81278
ment	-7.81304
▁directive	-7.81726
▁p	-7.81786
▁since	-7.82077
▁position	-7.82178
▁If	-7.83235
an	-7.83257
▁regard	-7.83609
ers	-7.83867
▁M	-7.84132
▁terms	-7.84136
▁give	-7.84324
▁But	-7.84928
▁framework	-7.84966
able	-7.85166
le	-7.85166
▁further	-7.85459
ra	-7.86619
▁needs	-7.86765
▁resources	-7.87667
▁increase	-7.88026
▁employment	-7.88444
▁For	-7.88623
▁decision	-7.88813
▁House	-7.89207
ity	-7.90039
▁adopted	-7.9015
▁rules	-7.90231
▁Group	-7.90382
▁whether	-7.90411
▁strategy	-7.90469
▁un	-7.9055
▁again	-7.90752
▁matter	-7.90909
▁better	-7.91223
▁great	-7.9215
▁present	-7.92315
▁thank	-7.92417
▁subject	-7.92422
▁services	-7.92454
▁approach	-7.92657
▁welcome	-7.92798
▁issues	-7.93047
▁before	-7.93072
▁different	-7.94084
▁co	-7.94091
▁certain	-7.94155
▁proposals	-7.94198
▁opinion	-7.94323
▁ladies	-7.94443
▁policies	-7.94443
se	-7.94829
▁then	-7.94843
▁health	-7.95094
▁basis	-7.95743
▁towards	-7.9582
▁progress	-7.95984
ri	-7.96661
▁provide	-7.96799
▁after	-7.97001
▁come	-7.97007
▁result	-7.97209
▁hand	-7.97611
▁legislation	-7.98742
▁aid	-7.98813
▁products	-7.98923
▁research	-7.99463
k	-7.99691
▁continue	-7.99721
▁account	-7.99894
▁conditions	-8.00451
▁current	-8.00517
ive	-8.00526
st	-8.00885
▁change	-8.01336
▁region	-8.01943
▁third	-8.02054
▁next	-8.02184
▁growth	-8.02578
▁behalf	-8.02639
▁ask	-8.03286
▁amendments	-8.03303
▁B	-8.03473
▁however	-8.03504
▁including	-8.03721
▁small	-8.03729
▁bring	-8.04131
▁importance	-8.04352
li	-8.04434
▁institutions	-8.0455
▁writing	-8.04714
at	-8.04792
▁done	-8.0505
▁State	-8.05159
▁greater	-8.05419
▁authorities	-8.0562
▁access	-8.05731
el	-8.06307
▁specific	-8.06859
▁real	-8.06973
▁whole	-8.07027
▁working	-8.07575
▁regulation	-8.07928
▁transport	-8.08585
▁million	-8.08607
▁high	-8.08668
▁going	-8.08704
as	-8.08718
▁G	-8.08823
▁serious	-8.0906
United	-8.0912
▁essential	-8.09235
▁single	-8.09418
▁What	-8.09626
▁forward	-8.09639
▁effective	-8.09933
il	-8.10077
▁implementation	-8.10248
▁industry	-8.10363
ent	-8.10582
ir	-8.1083
▁agreements	-8.10892
▁power	-8.11168
A	-8.11304
▁environmental	-8.11439
▁wish	-8.11464
▁really	-8.11502
▁nuclear	-8.11675
▁economy	-8.11678
▁fundamental	-8.11746
▁concerned	-8.11845
▁three	-8.12211
▁find	-8.12574
▁especially	-8.12859
▁become	-8.13112
▁f	-8.13536
▁global	-8.13793
▁Members	-8.13875
▁call	-8.14486
▁used	-8.14492
▁jobs	-8.14874
▁funds	-8.15201
▁go	-8.15717
▁general	-8.16245
▁democratic	-8.16259
▁No	-8.16619
▁every	-8.16674
▁On	-8.16809
▁back	-8.16859
▁democracy	-8.16912
▁principle	-8.17153
▁making	-8.17651
▁So	-8.18025
▁workers	-8.18037
7	-8.18288
▁E	-8.18592
▁freedom	-8.18597
et	-8.1866
▁group	-8.18941
▁attention	-8.19117
▁based	-8.19299
▁major	-8.19311
▁safety	-8.1939
▁consider	-8.19482
▁food	-8.19741
▁opportunity	-8.19811
▁during	-8.19811
ch	-8.19878
▁reason	-8.19994
th	-8.20215
▁create	-8.20461
▁negotiations	-8.20532
▁few	-8.20693
▁free	-8.20715
/	-8.20866
▁internal	-8.2094
▁did	-8.21456
▁regions	-8.21547
▁responsibility	-8.21608
▁programmes	-8.21734
▁interests	-8.21749
lo	-8.21919
▁least	-8.22043
▁something	-8.22082
▁down	-8.22897
▁shall	-8.23402
▁step	-8.23462
▁government	-8.23658
▁achieve	-8.23756
▁procedure	-8.23776
▁various	-8.24041
▁second	-8.24148
ul	-8.2454
▁difficult	-8.24691
▁together	-8.2473
▁look	-8.2476
▁another	-8.24974
on	-8.25053
▁children	-8.25056
▁standards	-8.25063
▁while	-8.25137
▁efforts	-8.25245
h	-8.25522
ting	-8.25694
▁At	-8.25736
▁society	-8.25834
▁proposed	-8.25863
ate	-8.25905
▁allow	-8.25935
▁clearly	-8.26123
▁F	-8.26251
▁state	-8.26401
▁taking	-8.26452
▁itself	-8.26535
▁deal	-8.26783
▁money	-8.26784
▁objectives	-8.27327
▁positive	-8.27366
▁impact	-8.27956
ter	-8.28368
▁And	-8.28522
ant	-8.28693
▁text	-8.2879
▁c	-8.29769
4	-8.30432
▁agricultural	-8.30893
0	-8.31105
C	-8.31147
z	-8.31171
▁These	-8.31208
▁companies	-8.315
8	-8.31807
w	-8.31808
▁environment	-8.31857
▁period	-8.32286
1	-8.32531
▁always	-8.32638
▁H	-8.32852
▁interest	-8.33154
▁once	-8.33843
▁They	-8.33886
▁improve	-8.33949
9	-8.33997
ce	-8.34305
▁risk	-8.34919
▁quit	-8.3505
▁things	-8.35165
5	-8.35293
▁regional	-8.35558
▁control	-8.35649
▁main	-8.35889
tion	-8.35936
▁competition	-8.3613
▁rather	-8.36313
▁promote	-8.36404
▁form	-8.37013
▁context	-8.37461
est	-8.38213
▁production	-8.38226
2	-8.3832
▁Government	-8.38622
▁e	-8.38731
▁force	-8.38811
▁sustainable	-8.39283
▁full	-8.39462
▁less	-8.39497
▁Article	-8.39608
▁get	-8.39789
▁initiative	-8.40014
▁3	-8.40035
▁life	-8.40128
▁words	-8.40654
▁large	-8.40674
▁quality	-8.4082
▁P	-8.41216
▁simply	-8.41321
▁d	-8.41461
▁recent	-8.41633
▁tax	-8.42107
▁To	-8.42142
▁currently	-8.42566
▁involved	-8.42731
▁points	-8.42809
▁committee	-8.43043
▁lack	-8.43659
▁kind	-8.43897
▁labour	-8.44095
▁costs	-8.44191
▁following	-8.44474
▁funding	-8.44506
▁local	-8.45087
▁T	-8.45092
▁appropriate	-8.45136
▁yet	-8.45137
▁projects	-8.45139
▁often	-8.45198
▁aim	-8.4523
▁management	-8.45297
▁fully	-8.45433
▁investment	-8.45872
te	-8.46118
▁cohesion	-8.46189
▁concern	-8.4638
▁1	-8.46767
la	-8.46825
▁majority	-8.46946
▁non	-8.47165
▁act	-8.47265
▁amendment	-8.47296
▁strong	-8.47456
▁relations	-8.47539
▁young	-8.47627
▁understand	-8.47672
ol	-8.47707
▁objective	-8.47919
▁best	-8.48034
▁having	-8.48071
▁systems	-8.48288
▁con	-8.48446
▁available	-8.48534
▁parties	-8.4874
▁stability	-8.48903
▁education	-8.48924
▁her	-8.4895
▁each	-8.48955
▁play	-8.49054
▁consumers	-8.49729
ut	-8.49741
▁actually	-8.4978
▁concerns	-8.50017
▁accept	-8.50116
▁per	-8.50184
ro	-8.50275
▁results	-8.5041
3	-8.5043
▁euro	-8.5079
▁pay	-8.5104
un	-8.51154
j	-8.51518
I	-8.51774
P	-8.51927
mp	-8.51954
ist	-8.52012
is	-8.52221
▁legislative	-8.52274
▁t	-8.52884
▁key	-8.5291
▁data	-8.52964
▁unemployment	-8.52964
▁creation	-8.53559
▁service	-8.53717
▁states	-8.53745
!	-8.54103
▁activities	-8.54212
▁draft	-8.5431
▁answer	-8.54595
▁significant	-8.54606
ne	-8.54958
▁groups	-8.54967
▁concerning	-8.54974
▁responsible	-8.55034
6	-8.55189
▁open	-8.5539
▁With	-8.55421
▁extremely	-8.55458
▁Affairs	-8.55531
▁foreign	-8.55753
▁solution	-8.55789
▁EUR	-8.56035
▁decisions	-8.56151
▁prevent	-8.5662
▁let	-8.56807
▁business	-8.56973
▁peace	-8.57284
us	-8.57475
▁2020	-8.57779
ness	-8.5778
▁certainly	-8.57896
▁You	-8.57912
am	-8.58357
▁joint	-8.58691
▁dis	-8.58802
E	-8.59039
▁population	-8.59308
▁poverty	-8.59366
▁move	-8.59366
▁benefit	-8.59479
age	-8.59697
▁innovation	-8.59827
▁individual	-8.5989
▁guarantee	-8.60074
▁fight	-8.60453
▁reasons	-8.60655
▁lead	-8.60884
▁provided	-8.61043
S	-8.61416
▁reform	-8.61483
▁direct	-8.61755
▁4	-8.61925
▁enable	-8.6212
▁remain	-8.62178
▁developing	-8.62187
▁transparency	-8.62282
ous	-8.62316
▁enough	-8.62342
▁express	-8.62499
▁Fund	-8.62513
▁Let	-8.62674
▁civil	-8.62686
▁potential	-8.62698
▁special	-8.62901
▁Finally	-8.62936
▁plan	-8.62947
▁ago	-8.63054
▁start	-8.63472
▁instruments	-8.63707
▁Lisbon	-8.63713
▁climate	-8.63713
▁instrument	-8.63779
▁among	-8.63871
▁request	-8.63913
om	-8.64002
▁indeed	-8.64019
▁mentioned	-8.64293
▁solidarity	-8.64497
▁Therefore	-8.64557
▁thing	-8.64623
▁assistance	-8.64624
▁include	-8.64767
▁priority	-8.6481
▁needed	-8.6484
id	-8.64852
▁waste	-8.6519
▁cases	-8.65768
▁voting	-8.6596
▁response	-8.66206
▁months	-8.66255
▁review	-8.66267
▁procedures	-8.66364
▁aware	-8.66681
▁st	-8.66734
▁application	-8.66961
▁cost	-8.67217
v	-8.67304
▁medium	-8.6732
▁commitment	-8.67722
▁longer	-8.67738
▁violence	-8.68007
▁motion	-8.6802
D	-8.68129
▁final	-8.6823
▁protect	-8.68252
▁regards	-8.68282
▁Court	-8.68447
▁adoption	-8.68504
term	-8.68631
▁existing	-8.69057
▁criteria	-8.69141
▁might	-8.69151
ies	-8.69188
▁principles	-8.69497
▁%	-8.69612
ot	-8.69752
▁above	-8.69755
▁budgetary	-8.69894
co	-8.6995
▁consumer	-8.70359
▁show	-8.70401
▁several	-8.70417
▁due	-8.70418
▁reduce	-8.7043
im	-8.70473
▁stress	-8.70583
ism	-8.70619
▁5	-8.70645
▁governments	-8.70714
▁achieved	-8.70808
▁K	-8.70812
▁2009	-8.70832
▁technical	-8.70932
▁governance	-8.71
▁000	-8.71128
▁2	-8.71502
▁idea	-8.71769
▁aspects	-8.71807
▁W	-8.71843
▁day	-8.71861
to	-8.72273
▁integration	-8.72297
▁Directive	-8.72362
▁markets	-8.72433
▁questions	-8.72568
▁field	-8.7288
▁meeting	-8.72886
▁job	-8.73134
▁cultural	-8.73173
▁avoid	-8.73415
ted	-8.7369
▁excellent	-8.73747
▁compromise	-8.73813
▁doing	-8.74045
▁line	-8.74148
▁regarding	-8.74181
▁agreed	-8.74256
▁h	-8.74262
▁effect	-8.74291
▁contribution	-8.74292
▁nothing	-8.74485
▁themselves	-8.74546
▁training	-8.74582
▁dialogue	-8.74613
▁moment	-8.74705
▁short	-8.74714
▁Turkey	-8.74815
▁mean	-8.74827
ure	-8.75149
▁little	-8.75285
▁matters	-8.75339
▁movement	-8.75603
▁share	-8.7565
▁increased	-8.75668
▁union	-8.75758
▁carried	-8.75758
▁develop	-8.7596
ge	-8.76232
▁De	-8.76321
▁increasing	-8.76366
▁enterprises	-8.76409
▁vital	-8.76438
▁businesses	-8.76456
▁V	-8.76577
▁competitiveness	-8.76586
▁focus	-8.77121
▁provisions	-8.77163
ad	-8.77348
ight	-8.77513
ary	-8.77565
▁project	-8.776
▁meet	-8.77615
um	-8.77625
ors	-8.77741
▁war	-8.77814
▁sure	-8.77964
▁others	-8.78007
▁value	-8.78043
▁adopt	-8.78082
ia	-8.78267
▁seems	-8.78288
▁consequences	-8.78499
ance	-8.78986
▁presidency	-8.78993
▁congratulate	-8.79053
▁external	-8.79063
▁seen	-8.79237
▁Agreement	-8.79554
▁farmers	-8.80048
▁strengthen	-8.80207
▁crucial	-8.8026
F	-8.80368
▁20	-8.80445
▁g	-8.80694
ated	-8.8073
▁throughout	-8.80793
▁changes	-8.80876
▁communication	-8.809
▁priorities	-8.80903
▁opportunities	-8.81043
▁R	-8.81148
▁true	-8.81472
▁contribute	-8.81659
▁basic	-8.82033
▁Presidency	-8.82047
▁found	-8.82218
▁perhaps	-8.82554
▁Ireland	-8.82626
▁efficiency	-8.82635
M	-8.82653
▁mechanism	-8.8272
▁fair	-8.82787
ver	-8.82873
ll	-8.82958
▁mind	-8.83011
▁feel	-8.83298
▁relation	-8.83306
▁addition	-8.83412
▁cross	-8.83501
▁stage	-8.83746
▁practice	-8.83835
▁10	-8.83961
▁apply	-8.8403
▁establish	-8.84043
▁encourage	-8.84097
▁comes	-8.84172
▁requirements	-8.8436
ec	-8.84431
▁My	-8.84518
▁fishing	-8.84568
▁reduction	-8.84752
▁mention	-8.84797
▁face	-8.84811
▁document	-8.84815
▁structural	-8.84826
▁regulations	-8.84838
▁financing	-8.84863
▁Russia	-8.84898
▁2010	-8.84906
ma	-8.85157
▁members	-8.85316
▁challenges	-8.85322
%	-8.85407
▁ensuring	-8.85421
▁past	-8.85646
ci	-8.85836
ence	-8.86059
vi	-8.86197
▁All	-8.86222
ling	-8.86322
▁draw	-8.86459
▁everyone	-8.8656
▁N	-8.86704
ck	-8.86779
ating	-8.86813
▁rule	-8.86947
▁although	-8.87
▁actions	-8.87119
▁pressure	-8.87163
▁demand	-8.87214
ve	-8.8722
DE	-8.87676
▁reports	-8.8774
de	-8.87741
▁O	-8.87843
▁pleased	-8.87908
▁2011	-8.883
▁elections	-8.88339
B	-8.8841
tra	-8.88418
▁fisheries	-8.88605
▁success	-8.88668
▁billion	-8.88697
▁victims	-8.88768
▁item	-8.88883
▁One	-8.8892
▁required	-8.89211
ally	-8.89314
▁soon	-8.89342
▁address	-8.8939
▁off	-8.89882
▁speak	-8.89915
▁discussion	-8.89953
sized	-8.90084
▁relating	-8.90392
▁treatment	-8.90637
▁7	-8.90669
tic	-8.9069
▁monitoring	-8.90754
▁8	-8.90894
▁she	-8.90933
▁package	-8.911
▁turn	-8.91183
▁powers	-8.91296
▁levels	-8.91487
▁Hungarian	-8.91654
▁tomorrow	-8.91893
▁rate	-8.92145
▁v	-8.92533
▁talk	-8.92585
▁term	-8.92745
▁North	-8.92859
▁implement	-8.93077
▁thus	-8.9318
▁living	-8.93255
ial	-8.93259
▁supported	-8.93327
▁additional	-8.93433
▁Secondly	-8.93445
▁media	-8.93506
▁asked	-8.93782
▁values	-8.93978
▁balance	-8.94092
▁9	-8.94102
R	-8.94151
▁makes	-8.94181
▁humanitarian	-8.94228
▁experience	-8.94637
less	-8.94644
▁tell	-8.94646
▁19	-8.94654
▁12	-8.94657
▁private	-8.94728
▁direction	-8.94733
▁implemented	-8.94821
▁tabled	-8.94931
▁equal	-8.94956
▁Schengen	-8.95128
▁industrial	-8.95139
ud	-8.9525
▁sense	-8.95292
▁b	-8.95337
▁statement	-8.95642
x	-8.95788
▁initiatives	-8.95943
▁across	-8.95953
and	-8.95985
up	-8.9601
▁four	-8.9603
▁established	-8.96091
▁coordination	-8.96119
▁list	-8.96202
▁conclusion	-8.9632
▁colleagues	-8.96699
▁regime	-8.96702
▁creating	-8.96786
▁leave	-8.96869
▁prices	-8.97038
▁never	-8.97041
▁inter	-8.97119
▁everything	-8.97373
▁close	-8.97732
20	-8.98109
▁keep	-8.98224
▁outside	-8.98303
pp	-8.98373
▁6	-8.98391
▁monetary	-8.98392
▁model	-8.98641
▁capital	-8.98646
▁hard	-8.9878
▁ourselves	-8.98812
▁Re	-8.98887
▁until	-8.98907
▁though	-8.98965
▁agenda	-8.99582
ts	-8.99637
▁called	-8.99685
▁week	-8.99689
▁absolutely	-8.99733
▁When	-8.99841
▁expect	-8.99841
▁measure	-8.99851
▁consideration	-8.99886
me	-8.99936
ide	-8.99939
▁finally	-9.00052
▁applied	-9.00272
▁confidence	-9.00272
all	-9.0034
ig	-9.00385
▁provision	-9.01089
▁Africa	-9.01098
▁Development	-9.01667
▁Regulation	-9.01754
▁debt	-9.01843
▁him	-9.01952
▁accession	-9.01975
▁light	-9.02206
▁water	-9.02217
▁amount	-9.02259
ian	-9.02304
▁saying	-9.02305
▁using	-9.0234
▁community	-9.0238
ta	-9.02485
▁quickly	-9.02582
▁proper	-9.02593
ine	-9.02652
▁genuine	-9.02992
▁calls	-9.03237
▁improving	-9.03348
ip	-9.03516
▁Amendment	-9.03524
▁agriculture	-9.03527
▁crime	-9.03614
▁around	-9.03617
▁assessment	-9.03734
▁sign	-9.03775
▁South	-9.03795
▁namely	-9.03888
▁talking	-9.03905
▁origin	-9.04015
▁borders	-9.04053
▁Republic	-9.04066
▁return	-9.04072
▁attempt	-9.04155
▁currency	-9.04335
▁tourism	-9.04336
ac	-9.04374
▁natural	-9.04388
▁care	-9.04668
▁try	-9.04754
▁Conference	-9.04786
▁combat	-9.04828
▁partners	-9.04854
▁remind	-9.0509
▁respond	-9.05149
op	-9.05167
▁add	-9.05446
▁strategic	-9.05605
▁aimed	-9.05691
▁produce	-9.05804
▁effort	-9.05911
▁sectors	-9.05917
▁represent	-9.05967
▁Furthermore	-9.06062
▁fellow	-9.06155
▁car	-9.06342
O	-9.06385
▁nature	-9.06522
▁providing	-9.06522
▁culture	-9.06614
▁either	-9.06614
▁trans	-9.06817
▁times	-9.06891
▁goods	-9.06902
▁Minister	-9.0704
ised	-9.07142
di	-9.07174
▁reached	-9.07222
cu	-9.0731
▁effects	-9.07346
▁events	-9.07431
▁doubt	-9.07519
▁decided	-9.07662
▁presented	-9.07786
ward	-9.07986
▁Irish	-9.08101
▁infrastructure	-9.08194
▁included	-9.08195
▁Thank	-9.08287
▁fund	-9.08291
▁France	-9.08381
▁closed	-9.08465
▁strengthening	-9.08671
N	-9.08719
▁upon	-9.08902
T	-9.08931
▁China	-9.08946
▁ex	-9.09126
▁home	-9.09135
▁refer	-9.09233
ical	-9.09309
▁exchange	-9.09324
▁along	-9.09442
▁Market	-9.09514
▁military	-9.09515
▁minimum	-9.09609
ho	-9.09669
▁stop	-9.09722
cy	-9.09783
▁Rights	-9.09799
▁possibility	-9.0999
▁live	-9.10035
▁supply	-9.10085
▁brought	-9.10276
▁reach	-9.10521
▁promoting	-9.10659
▁scientific	-9.10756
Office	-9.10756
▁provides	-9.10769
▁illegal	-9.10852
▁prepared	-9.10939
▁Economic	-9.10948
▁coming	-9.11038
ful	-9.11063
▁giving	-9.11431
▁independent	-9.11471
▁Green	-9.1149
▁road	-9.11631
▁join	-9.1172
▁held	-9.11819
▁partnership	-9.11917
▁ECU	-9.12014
no	-9.12316
▁asylum	-9.12501
led	-9.12502
▁introduce	-9.12648
ty	-9.12877
em	-9.12979
▁conflict	-9.13166
man	-9.13236
sh	-9.13252
▁relevant	-9.13483
rs	-9.13515
▁difficulties	-9.13525
▁six	-9.1378
▁introduction	-9.13782
▁pro	-9.13789
▁SMEs	-9.13863
▁recently	-9.13929
▁message	-9.14078
▁safeguard	-9.14079
▁effectively	-9.14096
▁UN	-9.14182
▁ever	-9.14208
▁15	-9.14241
▁created	-9.14303
▁affected	-9.14353
▁task	-9.14379
▁represents	-9.14435
▁price	-9.14474
▁visa	-9.14477
▁Of	-9.14672
▁maintain	-9.14746
▁extent	-9.14776
ill	-9.1478
▁low	-9.14983
der	-9.15034
▁cover	-9.15104
▁Greece	-9.15177
▁benefits	-9.15194
▁annual	-9.15454
▁comprehensive	-9.15479
ti	-9.15486
▁central	-9.15579
▁shown	-9.1567
▁pre	-9.15746
▁solutions	-9.15816
▁nor	-9.15978
▁received	-9.1602
▁delay	-9.16085
▁stand	-9.16103
▁broad	-9.16197
▁previous	-9.16274
iv	-9.16369
out	-9.164
▁expressed	-9.16469
▁December	-9.16491
▁almost	-9.16594
▁according	-9.16666
▁ban	-9.16832
▁income	-9.16899
lu	-9.17078
▁practical	-9.17104
▁carry	-9.17126
nd	-9.17214
▁US	-9.1732
▁offer	-9.17376
▁reality	-9.17524
ions	-9.17547
▁burden	-9.17617
▁supporting	-9.17646
ities	-9.17678
border	-9.17768
▁completely	-9.17803
▁Germany	-9.18011
▁former	-9.18165
▁rural	-9.1824
▁British	-9.1834
▁scope	-9.1834
ru	-9.18384
▁receive	-9.18407
▁implementing	-9.18467
ization	-9.18545
▁air	-9.18556
▁reforms	-9.18709
▁huge	-9.18756
▁sh	-9.18761
▁extend	-9.18829
▁adequate	-9.1886
▁begin	-9.18863
▁remains	-9.18894
va	-9.18934
▁International	-9.18964
▁Now	-9.18973
▁First	-9.19061
▁conference	-9.19069
▁heard	-9.19169
▁administrative	-9.19221
▁m	-9.19295
▁fall	-9.19585
▁approved	-9.19624
uch	-9.19651
▁organisations	-9.19655
ns	-9.19668
▁took	-9.19669
▁sp	-9.19722
▁credit	-9.19732
ry	-9.19946
▁criminal	-9.20013
▁active	-9.20182
▁discuss	-9.20492
▁decide	-9.20509
European	-9.20599
▁representatives	-9.20599
▁reading	-9.20694
▁name	-9.21076
▁producers	-9.21088
▁despite	-9.21106
▁men	-9.21159
▁product	-9.2134
▁border	-9.21358
▁bo	-9.21387
▁follow	-9.21436
▁developed	-9.21635
▁Minutes	-9.21714
▁exist	-9.21762
▁damage	-9.21822
▁export	-9.2186
▁He	-9.21886
▁limit	-9.2208
▁age	-9.22132
▁challenge	-9.22287
▁considered	-9.22345
▁Bank	-9.2236
▁justice	-9.22361
po	-9.22575
▁participation	-9.22792
▁Party	-9.22807
▁death	-9.22816
▁ambitious	-9.22901
▁unacceptable	-9.23009
▁total	-9.23044
▁raised	-9.23141
▁11	-9.23316
▁guidelines	-9.23445
▁Today	-9.23671
▁send	-9.23788
▁building	-9.23861
▁alternative	-9.23992
▁sitting	-9.24111
▁lot	-9.24209
▁defence	-9.24212
▁rest	-9.24409
▁Croatia	-9.24432
▁rise	-9.24442
▁behind	-9.24542
▁entire	-9.24546
if	-9.24605
▁days	-9.24715
▁combating	-9.24822
▁raise	-9.24851
The	-9.25076
▁competitive	-9.25106
▁caused	-9.25112
▁reducing	-9.25206
▁paid	-9.25317
▁mo	-9.25402
▁discussions	-9.25441
▁note	-9.2558
ex	-9.2586
▁achieving	-9.25875
▁trying	-9.25935
▁establishing	-9.25965
▁defend	-9.26045
▁left	-9.26099
▁aims	-9.2614
▁emphasise	-9.26179
end	-9.26195
▁Mediterranean	-9.2637
▁calling	-9.26392
▁Social	-9.26409
▁five	-9.26427
▁w	-9.26477
▁intended	-9.2666
▁similar	-9.2666
L	-9.2669
mi	-9.26693
▁improved	-9.26714
▁activity	-9.26778
he	-9.2681
EC	-9.26925
▁discrimination	-9.26937
ern	-9.26963
▁Ou	-9.27064
▁commercial	-9.27112
▁beginning	-9.27113
▁cause	-9.27115
pa	-9.27139
▁disaster	-9.27243
▁purpose	-9.27244
▁agencies	-9.27341
▁forms	-9.27374
▁away	-9.27553
▁summit	-9.27566
▁requires	-9.27755
▁Roma	-9.27782
▁sources	-9.27789
na	-9.27837
▁capacity	-9.27907
▁family	-9.27907
▁concept	-9.28011
▁cut	-9.28198
▁steps	-9.28311
▁refugees	-9.2832
▁expenditure	-9.28365
▁discussed	-9.28507
▁efficient	-9.28526
▁thanks	-9.28531
ow	-9.28708
▁content	-9.28722
ized	-9.28741
▁establishment	-9.28773
▁met	-9.28802
▁dealing	-9.28832
▁J	-9.28849
hi	-9.28849
IT	-9.28864
▁connection	-9.2894
▁wrong	-9.29055
isation	-9.29108
▁intervention	-9.2917
▁early	-9.29171
▁reference	-9.29188
▁properly	-9.29338
▁setting	-9.2941
▁urge	-9.2951
▁remember	-9.29523
▁instead	-9.29634
▁duty	-9.29634
▁urgent	-9.29773
▁se	-9.2983
▁Unfortunately	-9.29866
act	-9.30045
▁concrete	-9.30099
▁press	-9.30246
00	-9.30309
▁French	-9.30333
ha	-9.30602
▁hold	-9.30608
▁Central	-9.30684
ise	-9.30824
▁circumstances	-9.30919
▁Convention	-9.31272
▁happen	-9.31355
▁opposition	-9.3139
▁technology	-9.3139
▁Italy	-9.31398
▁overall	-9.31474
▁party	-9.31501
▁sea	-9.31521
▁specifically	-9.31557
▁personal	-9.31601
▁renewable	-9.31637
▁forces	-9.31717
▁learn	-9.3184
▁allowed	-9.3202
mo	-9.32043
▁side	-9.32096
▁bodies	-9.32101
▁May	-9.32208
▁status	-9.32221
▁increasingly	-9.32242
▁conclude	-9.32453
▁beyond	-9.32459
▁serve	-9.32459
▁complete	-9.32836
▁unfortunately	-9.32864
▁domestic	-9.32938
▁takes	-9.33004
▁enlargement	-9.33058
▁useful	-9.33059
▁facing	-9.33178
▁poor	-9.33191
▁date	-9.33205
ability	-9.33216
▁considerable	-9.33299
▁committed	-9.33425
▁accordance	-9.33542
▁East	-9.33559
▁equality	-9.336
▁choice	-9.3366
honourable	-9.33803
▁precisely	-9.33863
▁lives	-9.34003
▁correct	-9.34239
▁higher	-9.34341
▁World	-9.34388
▁institutional	-9.34529
ious	-9.34556
vo	-9.34561
▁Romania	-9.34581
▁closely	-9.34823
▁successful	-9.35044
▁conclusions	-9.35192
▁thought	-9.35269
▁l	-9.35447
▁recommendations	-9.35528
▁influence	-9.35857
▁comments	-9.3592
▁te	-9.3593
▁post	-9.36033
con	-9.3613
▁aspect	-9.36293
▁anti	-9.36493
▁knowledge	-9.36603
▁seriously	-9.36632
▁People	-9.36728
▁economies	-9.3673
ory	-9.3676
▁weeks	-9.36828
ish	-9.36841
▁r	-9.36928
▁networks	-9.37043
▁Moreover	-9.37105
▁sufficient	-9.37149
▁imp	-9.37221
▁Policy	-9.37228
▁finance	-9.37239
▁directly	-9.37313
ably	-9.37316
).	-9.37422
▁self	-9.37604
ca	-9.37609
▁integrated	-9.37787
▁Firstly	-9.37865
▁regret	-9.38108
ak	-9.38134
▁Nations	-9.3849
▁1996	-9.38615
▁claim	-9.38615
▁discharge	-9.38615
▁June	-9.38742
▁German	-9.38765
ni	-9.38777
▁goes	-9.38984
▁Although	-9.38997
fi	-9.39158
G	-9.39225
▁mere	-9.3925
▁strongly	-9.39283
▁January	-9.3938
▁controls	-9.39424
▁land	-9.39556
be	-9.39664
ten	-9.39696
▁negative	-9.39764
ke	-9.39853
▁fear	-9.39893
▁transparent	-9.39894
▁colleague	-9.40026
▁structure	-9.40061
▁rightly	-9.4011
▁introduced	-9.40214
▁emissions	-9.403
▁practices	-9.40336
▁simple	-9.40409
▁shows	-9.40632
ever	-9.40651
▁Trade	-9.40797
▁Eastern	-9.40808
▁An	-9.4082
é	-9.40927
▁disease	-9.41085
▁seem	-9.41166
▁child	-9.41187
▁Kingdom	-9.41187
▁ma	-9.41247
ie	-9.41367
▁led	-9.41397
▁forget	-9.41453
▁paragraph	-9.41469
▁invest	-9.41524
▁study	-9.41579
▁old	-9.41607
▁added	-9.41679
▁safe	-9.41863
▁exercise	-9.4196
▁Indeed	-9.41973
▁referred	-9.41984
▁sub	-9.41991
go	-9.42058
▁How	-9.42123
▁require	-9.42127
ingle	-9.42211
▁balanced	-9.42236
▁alone	-9.42372
▁failure	-9.42382
▁test	-9.42417
▁Sea	-9.42424
▁gas	-9.4243
▁half	-9.42499
▁Bulgaria	-9.42631
▁reflect	-9.42736
▁oil	-9.42921
▁transfer	-9.43162
▁di	-9.43193
▁persons	-9.43324
▁bilateral	-9.43427
ng	-9.43466
▁mobility	-9.43561
od	-9.43642
▁discussing	-9.43658
▁mutual	-9.43828
▁limited	-9.43852
▁type	-9.43908
▁reduced	-9.44069
▁Serbia	-9.4423
▁rates	-9.443
▁Since	-9.44364
▁banks	-9.44439
▁pension	-9.44454
▁spirit	-9.44499
▁attitude	-9.44499
▁immigration	-9.44634
▁author	-9.44712
▁fraud	-9.44769
▁ways	-9.44773
▁18	-9.44835
H	-9.44888
▁chance	-9.45048
▁assess	-9.45272
▁14	-9.4533
her	-9.45442
▁Paper	-9.45589
per	-9.45655
responsibilities	-9.45718
▁history	-9.45718
▁Co	-9.45794
▁standard	-9.4583
▁competence	-9.45991
▁evaluation	-9.45994
▁Service	-9.46128
▁plans	-9.4626
▁13	-9.46317
▁differences	-9.46346
▁consistent	-9.46413
▁growing	-9.46445
▁prevention	-9.46507
▁facilitate	-9.4654
▁wanted	-9.46665
▁Japan	-9.46671
▁Euro	-9.46675
▁word	-9.4672
▁customs	-9.46783
▁modern	-9.46806
▁analysis	-9.46953
▁promotion	-9.46953
▁event	-9.46987
ard	-9.47003
▁consultation	-9.4711
▁Action	-9.4713
▁perspective	-9.47229
▁closer	-9.47267
▁30	-9.47273
▁professional	-9.47293
▁becoming	-9.47309
▁mechanisms	-9.47327
▁fail	-9.47357
▁tackle	-9.47422
▁monitor	-9.47422
called	-9.47524
▁produced	-9.476
▁patients	-9.47644
▁targets	-9.47655
▁includes	-9.47857
▁relationship	-9.47931
▁happened	-9.48049
▁March	-9.48084
spite	-9.48112
▁accepted	-9.48139
▁enter	-9.48165
pro	-9.4817
ab	-9.48317
▁parliamentary	-9.48364
vis	-9.48447
djustment	-9.4867
▁delegation	-9.48681
▁Libya	-9.48694
▁pass	-9.48699
▁voice	-9.48764
▁Foreign	-9.48764
▁Ma	-9.488
que	-9.48893
ual	-9.48945
red	-9.4901
▁bear	-9.49019
▁yesterday	-9.49045
ize	-9.49214
▁Portugal	-9.49327
line	-9.49364
▁emphasis	-9.49368
▁propose	-9.4941
▁risks	-9.49432
▁later	-9.49447
▁clause	-9.49469
▁Democrats	-9.495
▁animal	-9.49514
▁acts	-9.49637
▁improvement	-9.49642
▁ten	-9.49648
▁L	-9.49718
▁Belarus	-9.49752
▁fiscal	-9.50037
▁mandate	-9.50037
▁drugs	-9.50172
▁flexibility	-9.50179
▁dispute	-9.5018
▁commitments	-9.50277
▁Ashton	-9.50322
▁lo	-9.50341
▁head	-9.50347
▁asking	-9.50371
V	-9.50378
▁member	-9.50404
▁fish	-9.50426
▁critical	-9.50608
ff	-9.50609
▁obviously	-9.50648
▁recognition	-9.50751
▁D	-9.50794
▁submitted	-9.50907
▁speech	-9.50967
▁Egypt	-9.51026
▁register	-9.51182
▁obtain	-9.51274
▁ca	-9.51274
▁travel	-9.51311
onetary	-9.51462
▁deliver	-9.5147
for	-9.51636
▁speaker	-9.51868
▁stated	-9.51933
▁entirely	-9.52045
▁independence	-9.5205
▁gain	-9.5205
▁sanctions	-9.52199
▁looking	-9.52238
▁convention	-9.52245
▁signal	-9.52259
▁anything	-9.52342
▁known	-9.52488
▁permanent	-9.52632
▁trust	-9.52632
▁recommendation	-9.52633
▁link	-9.52696
▁read	-9.52729
▁abuse	-9.52929
▁demands	-9.5316
▁Brussels	-9.53218
▁After	-9.53219
▁statements	-9.53327
▁pillar	-9.53365
▁thinking	-9.53475
gen	-9.53564
▁convergence	-9.5366
▁authority	-9.53701
▁immediately	-9.5372
▁build	-9.53748
▁police	-9.53808
▁Italian	-9.53808
ified	-9.53909
▁gr	-9.5391
▁By	-9.53979
land	-9.54068
▁BSE	-9.54104
▁dimension	-9.54104
▁la	-9.54173
▁ground	-9.54244
nt	-9.54432
▁ideas	-9.54481
▁threat	-9.54492
▁target	-9.54495
▁seek	-9.54513
▁visit	-9.5455
▁UK	-9.54552
the	-9.5471
ign	-9.54778
▁contact	-9.54853
▁highly	-9.54886
▁mark	-9.54899
▁Baltic	-9.54998
▁Pa	-9.5507
▁highlight	-9.55262
▁elements	-9.55266
▁hear	-9.55347
▁1995	-9.55447
▁explain	-9.55555
▁Ukraine	-9.55598
▁demonstrate	-9.55655
▁Justice	-9.55748
▁Security	-9.55748
▁speaking	-9.55812
ber	-9.55816
▁secure	-9.55831
▁drawn	-9.55993
os	-9.55998
▁function	-9.56002
▁br	-9.56036
▁expression	-9.56288
▁100	-9.56331
▁plants	-9.56486
▁myself	-9.56505
mb	-9.5653
▁Agency	-9.56657
▁Ministers	-9.56715
▁healthcare	-9.56809
▁instance	-9.5681
▁accident	-9.56961
▁Un	-9.57047
▁table	-9.57129
▁bad	-9.57143
▁related	-9.5715
▁conduct	-9.57159
▁outcome	-9.57267
▁participate	-9.57267
▁sometimes	-9.57268
▁weak	-9.57294
▁language	-9.57308
▁contains	-9.57407
▁near	-9.57421
▁views	-9.57591
bi	-9.57744
▁enormous	-9.57881
▁record	-9.57881
ging	-9.57922
ite	-9.57971
▁appeal	-9.58035
▁campaign	-9.58035
▁immediate	-9.58282
▁whom	-9.58298
▁payments	-9.58349
▁linked	-9.58397
▁tests	-9.58443
▁17	-9.58586
▁comply	-9.58654
▁manner	-9.58814
▁cr	-9.58864
▁pact	-9.58864
▁en	-9.58906
▁recognise	-9.58942
▁Programme	-9.58964
▁convinced	-9.59029
▁contrary	-9.5912
▁assist	-9.59142
▁desire	-9.59277
▁Some	-9.59291
▁failed	-9.59349
▁official	-9.59371
▁operate	-9.59433
▁comment	-9.59513
▁Spain	-9.59589
▁advantage	-9.59675
▁informed	-9.59729
ES	-9.59763
▁Do	-9.59798
▁African	-9.59849
▁Pakistan	-9.59903
▁earlier	-9.59903
▁developments	-9.59948
▁27	-9.5997
▁involvement	-9.60091
cess	-9.60139
▁lay	-9.60178
▁run	-9.60261
▁late	-9.60619
▁rapporteurs	-9.60627
▁obligations	-9.60651
▁enjoy	-9.60691
▁easy	-9.60691
▁St	-9.60711
▁managed	-9.60746
av	-9.60821
▁office	-9.60846
▁Give	-9.60864
cl	-9.60992
▁Auditors	-9.61009
▁gives	-9.61096
▁trafficking	-9.61168
oc	-9.61258
▁November	-9.61486
▁administration	-9.61486
way	-9.61563
▁Rule	-9.61568
▁mis	-9.61653
▁Energy	-9.61806
▁applies	-9.61806
▁figures	-9.61815
▁lower	-9.61835
▁i	-9.61887
▁leading	-9.61896
▁complex	-9.6209
▁lost	-9.62165
▁unable	-9.62342
▁guarantees	-9.62431
▁heart	-9.62453
▁says	-9.62528
▁suggest	-9.62536
q	-9.626
▁1997	-9.6261
▁excessive	-9.62617
one	-9.62652
▁appear	-9.62754
▁method	-9.62761
▁Hungary	-9.62771
▁criticism	-9.62771
▁designed	-9.62819
▁repeat	-9.62914
ound	-9.63229
▁insist	-9.6323
▁separate	-9.63258
▁Human	-9.6342
▁October	-9.63583
▁innovative	-9.63583
▁banana	-9.63584
▁payment	-9.63703
ising	-9.63718
▁inclusion	-9.63746
ugh	-9.6376
▁Rules	-9.6379
▁happening	-9.63948
▁source	-9.64244
ach	-9.64277
son	-9.6438
▁exactly	-9.64401
▁families	-9.64401
▁regulatory	-9.64414
io	-9.64503
▁institution	-9.64552
ner	-9.64565
▁charge	-9.64566
▁continuing	-9.64566
▁opening	-9.64574
▁grant	-9.64576
▁methods	-9.64577
▁contain	-9.64587
▁sound	-9.64737
FR	-9.64739
▁terrorism	-9.64898
▁dangerous	-9.64914
▁2008	-9.64917
our	-9.65024
▁definition	-9.65061
▁functioning	-9.65128
▁revision	-9.65227
▁planning	-9.65228
▁pointed	-9.6528
making	-9.65298
▁factor	-9.65332
▁company	-9.65392
▁wonder	-9.65395
▁acceptable	-9.65515
▁technologies	-9.65559
▁territory	-9.65559
ries	-9.656
▁element	-9.65759
▁substantial	-9.65841
▁danger	-9.6604
▁worse	-9.6606
▁fulfil	-9.662
▁Environment	-9.66226
▁sensitive	-9.66226
▁factors	-9.66238
ists	-9.66241
▁materials	-9.66311
▁impossible	-9.66393
▁base	-9.66486
▁Chamber	-9.66561
▁consensus	-9.66561
▁Even	-9.66561
▁mainly	-9.6669
▁structures	-9.66721
▁laws	-9.6682
▁association	-9.66897
▁constructive	-9.66906
▁goal	-9.66932
▁totally	-9.67071
▁came	-9.67084
▁speed	-9.67127
▁counter	-9.6715
▁wide	-9.67224
▁ought	-9.67235
▁forced	-9.67321
5%	-9.67372
▁thousands	-9.67404
▁American	-9.6741
▁granted	-9.67417
▁associated	-9.67431
▁obvious	-9.67526
▁happy	-9.67574
▁construction	-9.67586
tain	-9.6761
▁thereby	-9.67672
▁fuel	-9.67744
▁staff	-9.67748
▁faced	-9.67794
▁25	-9.67992
▁else	-9.68081
▁identify	-9.68084
▁taxation	-9.68121
▁2012	-9.68255
▁court	-9.68256
▁rating	-9.68276
▁recovery	-9.683
▁Tunisia	-9.68323
▁network	-9.68337
▁firstly	-9.68344
ph	-9.68369
▁profit	-9.68387
▁medicines	-9.68426
▁Western	-9.6843
▁intend	-9.68524
RO	-9.68583
▁protecting	-9.68592
▁morning	-9.68597
▁path	-9.68636
▁While	-9.68768
▁corruption	-9.68775
▁patent	-9.6894
▁situations	-9.69057
▁confirm	-9.69113
▁16	-9.69127
▁n	-9.69158
▁block	-9.69285
▁probably	-9.69285
▁resolve	-9.69559
fe	-9.69631
▁investments	-9.69736
▁condemn	-9.69748
▁o	-9.69803
▁Why	-9.69804
▁Many	-9.69804
▁migration	-9.69812
▁original	-9.69901
▁ready	-9.69927
▁binding	-9.69977
▁spending	-9.70087
▁covered	-9.70221
ub	-9.70255
ba	-9.70414
▁credibility	-9.705
▁advance	-9.7078
▁laid	-9.71047
▁worth	-9.71097
▁Albania	-9.71201
▁person	-9.71226
ative	-9.71389
▁spent	-9.71426
▁operation	-9.71628
▁changed	-9.71653
▁Organisation	-9.7173
▁animals	-9.71852
PT	-9.71865
▁condition	-9.72059
▁addressed	-9.72157
▁Di	-9.72207
▁reject	-9.72407
▁imports	-9.72572
▁school	-9.72618
▁adopting	-9.72658
PL	-9.72813
▁effectiveness	-9.72893
▁reply	-9.72978
▁WTO	-9.73008
ier	-9.73021
▁expected	-9.73151
▁Sweden	-9.73155
▁encouraging	-9.73155
▁External	-9.73334
▁entry	-9.73335
▁gender	-9.73335
▁concluded	-9.73343
▁CAP	-9.73378
▁dealt	-9.73398
ntergovernmental	-9.73479
▁topic	-9.73502
▁Iran	-9.73516
▁helping	-9.73556
▁transition	-9.73605
▁multi	-9.73693
▁easier	-9.73695
▁Nevertheless	-9.73875
▁normal	-9.73877
▁drug	-9.73884
▁equipment	-9.73887
▁big	-9.73962
au	-9.73962
▁positions	-9.74033
▁Dutch	-9.74056
▁Procedure	-9.74056
tri	-9.74108
▁Act	-9.74191
▁Mar	-9.74205
▁maximum	-9.74237
ler	-9.74238
istic	-9.74275
▁inform	-9.74277
▁manage	-9.74319
▁passengers	-9.74348
▁emphasize	-9.74418
▁industries	-9.74418
▁impose	-9.74493
▁wants	-9.74555
▁understanding	-9.74586
▁Pro	-9.74803
▁hours	-9.74869
▁Le	-9.75078
▁signed	-9.75115
ification	-9.75132
▁po	-9.75162
▁High	-9.75188
▁approval	-9.7526
▁leaders	-9.75297
▁technological	-9.75336
▁transactions	-9.75365
(	-9.75437
gra	-9.75473
▁wishes	-9.75512
▁textile	-9.75538
▁Middle	-9.75698
▁ahead	-9.75699
▁accounts	-9.7572
▁attack	-9.75742
▁Li	-9.75873
▁import	-9.75917
▁followed	-9.76103
▁partner	-9.76182
fer	-9.76208
▁carefully	-9.76217
qui	-9.76237
▁sexual	-9.76255
▁membership	-9.76257
▁series	-9.76262
▁violations	-9.76274
▁range	-9.76341
▁Pact	-9.76473
▁intention	-9.76497
▁requirement	-9.76549
▁appreciate	-9.76622
ring	-9.76666
▁strict	-9.76686
▁recommend	-9.76749
▁La	-9.76783
▁Sudan	-9.76808
▁Internet	-9.77181
▁21	-9.7728
▁savings	-9.77359
▁citizen	-9.77436
▁option	-9.77465
▁approve	-9.77498
▁degree	-9.77555
▁shared	-9.7767
▁achievement	-9.77744
▁body	-9.77931
▁getting	-9.78035
▁assure	-9.78172
▁told	-9.78188
▁causes	-9.7828
▁Dublin	-9.78308
▁supervision	-9.78308
▁truly	-9.78308
ton	-9.78322
▁ha	-9.78547
▁communities	-9.78881
▁2013	-9.79066
▁Agriculture	-9.79066
▁Cyprus	-9.79066
▁tri	-9.79234
▁According	-9.79257
▁preparation	-9.79306
▁endorse	-9.79395
▁worked	-9.79447
▁EMU	-9.79447
▁religious	-9.79447
▁continues	-9.79479
▁elected	-9.79496
▁disasters	-9.79608
▁Fisheries	-9.79639
▁Canada	-9.79663
▁imposed	-9.79709
▁Netherlands	-9.7983
▁overcome	-9.7983
▁universal	-9.7983
▁Al	-9.7991
ev	-9.79963
▁deep	-9.80017
▁200	-9.801
▁parts	-9.8013
▁feed	-9.80131
▁lines	-9.80198
▁sl	-9.80211
▁exclusion	-9.80215
▁improvements	-9.80347
▁ability	-9.8044
ese	-9.80457
▁seeking	-9.80479
▁committees	-9.80521
▁courage	-9.806
▁exploitation	-9.8065
▁finding	-9.80774
▁vehicles	-9.80783
cre	-9.80891
▁loss	-9.80959
▁Stability	-9.80998
ou	-9.8102
▁affect	-9.81071
▁goals	-9.81128
▁experts	-9.81129
lin	-9.81221
▁primarily	-9.81376
▁proportion	-9.81376
ack	-9.8144
▁starting	-9.81446
▁unit	-9.8157
▁detailed	-9.81694
pre	-9.817
over	-9.8174
▁listen	-9.82129
▁rapid	-9.82137
▁Alliance	-9.82158
part	-9.82207
▁boost	-9.82355
▁placed	-9.82385
▁operating	-9.82551
▁welfare	-9.82551
10	-9.82643
▁organizations	-9.82649
▁Protection	-9.82749
▁directives	-9.82768
▁submit	-9.8293
▁CO	-9.82943
▁Representative	-9.82946
▁man	-9.83095
▁urgently	-9.83118
che	-9.83128
▁parliaments	-9.83137
▁Maastricht	-9.83144
▁ultimately	-9.83206
▁treaty	-9.83206
▁proposing	-9.83343
▁collective	-9.83366
▁letter	-9.83433
▁neighbour	-9.83536
▁reasonable	-9.83541
▁Ombudsman	-9.83542
▁beef	-9.83552
▁suffering	-9.83634
ga	-9.83658
▁solve	-9.83696
▁involving	-9.83741
▁II	-9.83924
▁evidence	-9.8394
▁gap	-9.83941
▁acknowledge	-9.84024
rat	-9.84058
▁resolutions	-9.84115
▁50	-9.84121
▁otherwise	-9.8414
▁naturally	-9.84221
▁decisive	-9.84341
▁legitimate	-9.84341
▁highest	-9.84475
ink	-9.84523
▁barriers	-9.84656
▁traffic	-9.84743
▁subsidiarity	-9.84746
▁compliance	-9.84777
▁GDP	-9.84783
▁numerous	-9.84944
▁sort	-9.84963
▁traditional	-9.85029
▁concentrate	-9.85146
▁July	-9.85147
▁ill	-9.85182
▁peaceful	-9.85266
▁Ra	-9.85318
▁strategies	-9.85349
▁ship	-9.85356
▁murder	-9.85552
▁Cooperation	-9.85555
▁suffer	-9.85724
▁advocate	-9.85755
men	-9.85838
▁greatest	-9.85916
▁India	-9.85944
▁paper	-9.85959
▁average	-9.85959
▁adapt	-9.85964
ned	-9.85988
▁diversity	-9.86163
▁labelling	-9.86172
▁month	-9.86203
▁Thirdly	-9.86234
▁fine	-9.86261
▁rejected	-9.86352
▁vulnerable	-9.86367
▁candidate	-9.86572
▁Only	-9.8673
based	-9.86731
▁simplify	-9.86777
▁obligation	-9.8683
▁count	-9.86904
▁reinforce	-9.86983
▁flexible	-9.87004
▁involve	-9.87172
▁severe	-9.8719
ath	-9.87358
▁electronic	-9.87396
▁obstacles	-9.87618
▁arise	-9.87626
▁conflicts	-9.87648
▁lies	-9.87737
▁session	-9.87775
▁consumption	-9.87811
▁deficit	-9.87884
▁prove	-9.87978
▁speakers	-9.88001
▁sustainability	-9.88024
▁Poland	-9.88025
▁likely	-9.88127
unt	-9.88162
▁proposes	-9.88162
▁contract	-9.883
▁started	-9.88376
▁Baroness	-9.88436
▁sum	-9.88557
▁Lithuania	-9.88645
▁moving	-9.88645
▁stable	-9.88779
▁preventing	-9.88844
▁territorial	-9.8889
▁firm	-9.88942
▁cuts	-9.89001
ert	-9.89015
▁detail	-9.89028
▁initial	-9.8906
port	-9.89124
raw	-9.89136
▁representative	-9.89174
▁stocks	-9.89233
▁enhanced	-9.89265
▁Liberal	-9.89275
▁grateful	-9.89275
▁anyone	-9.89293
▁Russian	-9.89324
▁continent	-9.89486
▁phase	-9.89486
▁assume	-9.89496
▁material	-9.8959
▁proceed	-9.89688
▁Those	-9.89697
▁Ladies	-9.89697
ile	-9.89721
▁compensation	-9.89723
▁guaranteed	-9.89741
▁su	-9.89845
▁Israel	-9.89895
▁Partnership	-9.89909
▁Santer	-9.89922
▁unfair	-9.90122
▁island	-9.90129
▁NATO	-9.90143
▁sa	-9.90237
▁affairs	-9.90283
▁1.	-9.90325
▁Greek	-9.90334
▁Yet	-9.90334
▁error	-9.90334
▁limits	-9.90476
mon	-9.90486
economic	-9.90497
▁Belgian	-9.90548
▁regular	-9.90758
▁disadvantage	-9.90761
▁politicians	-9.90761
▁From	-9.90761
▁pursue	-9.90777
▁April	-9.90975
▁eliminate	-9.90975
▁maritime	-9.90975
ient	-9.91075
▁stronger	-9.91142
▁Austria	-9.9119
▁Turkish	-9.9119
▁voluntary	-9.91192
▁documents	-9.91222
▁via	-9.91227
▁constitution	-9.91243
▁emergency	-9.91405
▁statistics	-9.91405
▁Financial	-9.91621
▁MEPs	-9.9165
▁actual	-9.91652
▁Framework	-9.91836
▁medical	-9.91837
▁protected	-9.91934
▁equally	-9.91975
▁grow	-9.91982
▁Barroso	-9.92053
▁February	-9.92053
ov	-9.92073
▁break	-9.9227
ook	-9.92346
▁cooperate	-9.92487
▁emerge	-9.92487
▁restrictions	-9.92497
ay	-9.92509
LT	-9.92614
▁personally	-9.92686
▁generally	-9.9288
▁America	-9.92916
▁Bosnia	-9.92923
▁distribution	-9.9294
▁Health	-9.93142
▁investigation	-9.93214
▁EGF	-9.93254
▁strengthened	-9.93326
az	-9.93353
▁fighting	-9.93498
▁processes	-9.93643
▁respected	-9.93786
▁reserve	-9.93802
▁protest	-9.93802
▁Question	-9.94022
▁scale	-9.94043
▁resolved	-9.94114
▁lose	-9.94193
▁formal	-9.9426
▁freedoms	-9.94589
▁tool	-9.94636
▁Be	-9.94644
▁par	-9.94702
▁exception	-9.9473
▁coordinated	-9.94862
▁Strategy	-9.9491
▁operations	-9.94951
▁realise	-9.94979
▁Po	-9.95024
▁Con	-9.9506
▁substances	-9.95067
▁opposed	-9.95088
▁Moldova	-9.95133
▁Prim	-9.95145
▁sides	-9.95155
▁defined	-9.95353
▁23	-9.95411
▁react	-9.95482
Applause	-9.95581
▁taxes	-9.95685
▁interesting	-9.9587
President	-9.95996
▁promise	-9.96013
▁trend	-9.96031
▁presence	-9.96032
▁declaration	-9.96038
▁minorities	-9.96039
▁board	-9.96099
▁save	-9.96208
▁afford	-9.96257
▁Vice	-9.96257
▁gave	-9.96258
▁check	-9.96268
▁mission	-9.96289
▁subsidies	-9.96483
▁glad	-9.96484
▁allocated	-9.96776
▁Iraq	-9.96938
▁written	-9.96944
▁awareness	-9.97007
▁meetings	-9.97012
▁exploit	-9.97106
▁appropriations	-9.97111
▁surveillance	-9.97394
▁relative	-9.97394
▁recall	-9.97394
▁civilian	-9.9744
▁fleet	-9.97494
▁prior	-9.97575
▁plenary	-9.97622
▁Structur	-9.97622
▁meaning	-9.97746
▁interested	-9.97787
▁duties	-9.97852
long	-9.97853
▁resulting	-9.97883
▁allows	-9.97913
▁organised	-9.97941
▁arrangements	-9.97984
▁General	-9.98001
▁purposes	-9.98043
▁extension	-9.98082
▁shadow	-9.98082
▁allowing	-9.98344
50	-9.98376
▁advertising	-9.98543
▁underline	-9.98668
ki	-9.98764
▁employees	-9.98775
▁IGC	-9.98775
▁Globalisation	-9.98777
▁harmonisation	-9.98799
mer	-9.9883
▁demonstrated	-9.98918
▁contributions	-9.9896
▁ambition	-9.99006
izing	-9.99033
▁significantly	-9.99228
▁abandon	-9.99239
▁drive	-9.99243
▁existence	-9.99269
▁substance	-9.99542
atic	-9.99566
▁Can	-9.99593
▁introducing	-9.99706
▁route	-9.99707
▁talks	-9.99731
▁belong	-9.99748
▁pensions	-9.99784
▁offers	-9.99786
mission	-9.99868
ural	-9.99883
▁simplification	-9.9994
▁capable	-9.9994
▁Not	-10.0003
▁attacks	-10.0012
▁protocol	-10.0017
▁spread	-10.0017
▁zone	-10.0017
▁honour	-10.0018
▁friend	-10.0019
▁oral	-10.0037
▁Arab	-10.0041
▁Ta	-10.0058
▁budgets	-10.0061
▁plant	-10.0064
▁depend	-10.0069
▁organisation	-10.0098
▁unless	-10.0099
▁Spanish	-10.0112
▁uniform	-10.0112
▁expectations	-10.0112
▁realistic	-10.0116
▁extended	-10.0119
▁Another	-10.0136
▁ACP	-10.0136
▁vision	-10.0136
▁liberalisation	-10.0138
▁al	-10.014
▁port	-10.0147
▁ro	-10.016
▁firmly	-10.016
▁grounds	-10.0162
▁U	-10.0171
▁election	-10.0171
W	-10.0181
▁arrest	-10.0183
▁ethnic	-10.0183
▁negotiating	-10.0183
▁reliable	-10.0183
▁deadline	-10.0184
▁gone	-10.0198
▁Because	-10.0207
▁forthcoming	-10.0207
▁replace	-10.0211
EU	-10.0223
▁permit	-10.023
▁Iceland	-10.0231
▁generate	-10.0231
▁compared	-10.0238
▁withdraw	-10.0245
ron	-10.0248
▁rich	-10.0255
▁applying	-10.0275
▁sensible	-10.0279
▁Lastly	-10.0298
scale	-10.0302
▁studies	-10.0304
▁retain	-10.0312
▁taxpayers	-10.0318
ade	-10.032
▁floor	-10.0328
▁Transport	-10.0328
▁schemes	-10.0343
▁neither	-10.0352
rd	-10.0352
▁sent	-10.0356
▁collection	-10.0357
▁largest	-10.037
▁exists	-10.0371
▁green	-10.0376
▁ch	-10.0376
▁September	-10.0401
▁clarify	-10.0401
▁restore	-10.0403
▁amending	-10.0415
▁centre	-10.0417
▁Belgium	-10.0425
▁judicial	-10.0425
▁operators	-10.0425
▁qualified	-10.0425
▁planned	-10.0428
▁century	-10.045
▁minority	-10.0453
▁evening	-10.046
▁Consumer	-10.0474
▁trading	-10.0474
▁slow	-10.0475
▁Com	-10.0479
▁involves	-10.0492
ble	-10.0495
▁Research	-10.0499
rate	-10.0506
▁exports	-10.0516
use	-10.0521
▁arms	-10.0523
▁behaviour	-10.0524
▁diplomatic	-10.0524
▁red	-10.0534
▁requested	-10.054
▁forests	-10.0545
▁valuable	-10.0548
▁mass	-10.0554
har	-10.0568
▁considering	-10.0571
▁changing	-10.0573
▁guaranteeing	-10.0589
▁drawing	-10.0589
á	-10.0598
▁facilities	-10.0598
▁recognize	-10.0598
▁crimes	-10.0599
▁property	-10.0601
tergovernmental	-10.0604
▁restrict	-10.0609
▁individuals	-10.0621
▁Women	-10.0623
▁austerity	-10.0623
▁coherent	-10.0623
▁define	-10.0624
▁extra	-10.0624
▁Yugoslavia	-10.063
▁dependent	-10.0631
▁chapter	-10.0648
▁maintaining	-10.0648
▁Funds	-10.0651
▁exceptional	-10.0655
▁millions	-10.0656
put	-10.068
time	-10.0691
▁dignity	-10.0698
▁revenue	-10.0698
▁treated	-10.0699
▁secondly	-10.0707
EL	-10.0717
U	-10.0734
▁fast	-10.0741
▁truth	-10.0749
▁highlighted	-10.0756
▁Here	-10.0762
▁minutes	-10.0773
▁seven	-10.0774
▁2000	-10.078
▁passed	-10.0785
▁distort	-10.0799
▁interpretation	-10.0804
▁sc	-10.0812
▁determination	-10.0813
▁operational	-10.0824
▁destroy	-10.0825
▁skills	-10.0825
▁welcomed	-10.0831
bu	-10.0843
▁languages	-10.0843
▁represented	-10.0843
▁entitled	-10.085
▁felt	-10.085
▁indicate	-10.0851
▁succeed	-10.0867
▁Su	-10.0872
▁judge	-10.0876
▁unemployed	-10.0877
▁Amendments	-10.0877
▁Ex	-10.0884
▁tradition	-10.0891
▁undoubtedly	-10.0901
▁performance	-10.0903
▁enhance	-10.0903
▁pose	-10.091
▁offered	-10.0912
▁arguments	-10.0912
▁constantly	-10.0917
▁undermine	-10.0918
▁Pre	-10.0926
▁explanation	-10.0927
▁nevertheless	-10.0927
▁disposal	-10.093
▁amongst	-10.0942
▁hit	-10.0947
▁class	-10.0953
▁Georgia	-10.0973
▁expand	-10.0979
▁flood	-10.0979
▁politics	-10.0979
▁preserve	-10.0979
▁section	-10.0979
▁nations	-10.0988
NL	-10.0989
▁banking	-10.1
▁geographical	-10.1005
▁urgency	-10.1005
▁continued	-10.1022
▁feeling	-10.1028
▁reaction	-10.1028
▁multilateral	-10.1031
▁New	-10.1031
▁threaten	-10.1031
▁examine	-10.1032
▁bi	-10.105
▁ordinary	-10.1057
▁compulsory	-10.1059
▁Chinese	-10.1083
▁etc	-10.1085
▁speculation	-10.1109
▁amended	-10.1112
of	-10.1113
▁quotas	-10.1119
▁officials	-10.1119
▁remarks	-10.1133
▁round	-10.1137
▁31	-10.1147
▁details	-10.115
▁whatever	-10.116
▁Morocco	-10.1162
▁enabling	-10.1162
▁preference	-10.1163
▁Ro	-10.1167
▁Christian	-10.1186
▁confirmed	-10.1188
▁procurement	-10.1188
▁ongoing	-10.1189
▁Hav	-10.1193
▁justified	-10.1199
▁coal	-10.1205
▁mistake	-10.1222
▁firms	-10.1229
▁design	-10.1233
▁whilst	-10.1241
▁witness	-10.1241
▁1994	-10.1241
▁intends	-10.1254
▁played	-10.1256
▁preparing	-10.1268
▁farming	-10.1268
▁sovereignty	-10.1268
▁worldwide	-10.1271
▁please	-10.1272
▁occasion	-10.1274
▁penalty	-10.1295
▁contained	-10.1296
▁enforcement	-10.1297
▁constitute	-10.1301
▁engage	-10.1302
▁Nos	-10.1303
▁spoke	-10.1309
▁launch	-10.1313
we	-10.1317
▁announced	-10.1321
▁prosperity	-10.1321
▁decent	-10.1321
▁granting	-10.1322
▁More	-10.1326
▁Da	-10.1341
▁Christians	-10.1343
▁EIB	-10.1348
▁identified	-10.1348
▁thorough	-10.1348
▁definitely	-10.1355
▁determined	-10.1358
▁prepare	-10.1377
▁happens	-10.1379
ull	-10.1387
▁24	-10.1388
▁Van	-10.1391
do	-10.1394
▁push	-10.1402
▁sentence	-10.1403
▁tried	-10.1424
▁prohibit	-10.1429
▁recognised	-10.1429
▁hearing	-10.1438
▁invite	-10.1449
▁Growth	-10.1456
▁heritage	-10.1456
▁scheme	-10.1466
▁contracts	-10.1472
▁size	-10.1477
▁White	-10.1483
▁television	-10.1483
▁attach	-10.1483
▁bit	-10.1495
ib	-10.1501
▁legally	-10.1505
▁inadequate	-10.151
▁mother	-10.151
▁difference	-10.1522
▁Charter	-10.1537
▁Public	-10.1537
▁religion	-10.1537
▁stake	-10.1538
▁2006	-10.1555
▁Florence	-10.1565
▁double	-10.1565
▁keeping	-10.157
▁bank	-10.1572
▁sta	-10.1575
▁resource	-10.1577
▁piece	-10.1592
▁somewhat	-10.1592
▁chain	-10.1592
▁mobilisation	-10.1592
▁proceedings	-10.1593
▁wait	-10.1597
▁got	-10.1616
▁500	-10.1619
▁favourable	-10.1624
▁brief	-10.1626
▁Budgets	-10.1626
▁occasions	-10.1641
▁focused	-10.1647
ah	-10.1647
▁targeted	-10.1656
▁organization	-10.1661
▁card	-10.1675
▁Perhaps	-10.1675
▁terrorist	-10.1679
▁careful	-10.1685
vel	-10.1702
▁abolish	-10.1703
▁referendum	-10.1703
▁suitable	-10.1705
▁Sa	-10.171
▁forest	-10.1712
▁constitutional	-10.1726
▁NGOs	-10.1759
▁impression	-10.1759
▁indication	-10.1759
▁pollution	-10.1759
▁analyse	-10.1759
▁mine	-10.1794
▁Last	-10.1799
coming	-10.1801
▁argument	-10.1804
▁published	-10.1805
▁extensive	-10.1815
▁identity	-10.1815
▁urban	-10.1815
▁National	-10.1815
▁crises	-10.1815
▁Consequently	-10.1843
▁valid	-10.1843
▁moral	-10.1843
▁southern	-10.1844
by	-10.1857
▁catch	-10.1871
▁Over	-10.1876
HU	-10.1878
pol	-10.1884
▁sad	-10.1884
▁tackl	-10.1889
▁wine	-10.1889
&	-10.19
▁Instead	-10.19
▁Summit	-10.19
▁heavy	-10.19
▁elsewhere	-10.19
▁latest	-10.1906
gan	-10.1907
▁space	-10.1928
▁40	-10.1943
▁th	-10.1949
▁massive	-10.196
▁apart	-10.1965
▁difficulty	-10.1972
▁suffered	-10.1976
▁relates	-10.1978
ship	-10.1978
▁Internal	-10.1985
▁postpone	-10.1985
▁penalties	-10.1985
▁foot	-10.1986
▁sell	-10.1989
▁admit	-10.2012
▁Haiti	-10.2014
▁article	-10.2014
▁fishermen	-10.2014
▁wealth	-10.2014
▁supposed	-10.2017
▁Once	-10.2032
▁collect	-10.2033
▁Thus	-10.2044
▁lessons	-10.2045
▁absolute	-10.205
▁undertaken	-10.2052
▁sufficiently	-10.2064
▁waiting	-10.2066
▁Assembly	-10.2071
▁racism	-10.2071
▁Legal	-10.2071
▁diseases	-10.2094
▁prison	-10.2096
▁checks	-10.2099
▁Brazil	-10.21
▁background	-10.21
▁determine	-10.2104
▁learning	-10.2106
▁van	-10.2115
▁fa	-10.2119
▁debating	-10.2129
▁actively	-10.2131
▁Bo	-10.214
old	-10.2144
tro	-10.2145
▁tasks	-10.2158
ö	-10.2158
▁VAT	-10.2158
▁kept	-10.2158
▁cont	-10.2161
▁bound	-10.2161
▁complain	-10.2186
Y	-10.2187
▁disagree	-10.2187
▁harm	-10.2188
▁conciliation	-10.2188
▁referring	-10.2189
▁spoken	-10.2201
▁buy	-10.2217
▁host	-10.2217
▁holding	-10.2225
lecommunications	-10.2243
▁driving	-10.2246
ties	-10.2249
▁youth	-10.2254
han	-10.2259
▁absence	-10.2275
▁acquis	-10.2275
▁length	-10.2275
▁Latin	-10.2275
▁Under	-10.2278
▁immigrants	-10.228
▁mid	-10.2286
▁affecting	-10.2292
▁pursu	-10.2303
▁possibilities	-10.2305
▁honest	-10.2305
▁electricity	-10.2308
▁conducted	-10.2312
▁greatly	-10.2316
▁described	-10.2318
▁Ka	-10.2322
▁Finland	-10.2334
▁choose	-10.2334
▁code	-10.2355
▁figure	-10.2362
▁primary	-10.2364
▁version	-10.2364
▁proved	-10.2369
▁tariff	-10.237
where	-10.2374
▁credible	-10.2394
▁stations	-10.2394
▁undertakings	-10.2396
▁Socialists	-10.2406
▁abstained	-10.2413
ible	-10.2415
▁Then	-10.2421
▁Black	-10.2424
▁biodiversity	-10.2424
▁confront	-10.2424
▁rapidly	-10.2427
▁organized	-10.243
▁possibly	-10.2454
▁agency	-10.2454
▁Free	-10.2454
▁notice	-10.2459
▁Employment	-10.2484
▁biggest	-10.2484
▁leadership	-10.2484
▁ministers	-10.2487
▁0	-10.2489
free	-10.2489
▁2007	-10.2497
▁foundations	-10.2498
▁Mo	-10.2499
▁parliament	-10.2513
▁consent	-10.2514
▁encouraged	-10.2523
▁quote	-10.2532
▁applications	-10.2537
▁discipline	-10.2544
▁economically	-10.256
row	-10.2566
▁prefer	-10.2574
▁carbon	-10.2574
▁stands	-10.2577
▁appears	-10.2578
▁politically	-10.2587
▁governing	-10.2589
▁bar	-10.2601
▁evaluate	-10.2605
▁latter	-10.2605
▁allocation	-10.2605
▁prospects	-10.2607
▁advantages	-10.2619
▁playing	-10.2622
▁chair	-10.2635
▁reveal	-10.2635
year	-10.264
▁Join	-10.2641
30	-10.2644
▁paying	-10.2649
▁Investment	-10.2666
▁demographic	-10.2666
▁links	-10.2674
▁assessments	-10.2696
▁understood	-10.2696
▁loans	-10.2697
▁Dur	-10.2697
▁forestry	-10.2698
▁oppose	-10.2703
▁amounts	-10.2705
▁wage	-10.2706
▁spend	-10.2711
▁stay	-10.2711
▁regarded	-10.2715
▁representation	-10.2716
▁strength	-10.2722
▁redundant	-10.2727
▁species	-10.2727
leg	-10.2732
▁waters	-10.275
▁demonstration	-10.2758
▁Nor	-10.276
SK	-10.276
ik	-10.2768
▁tend	-10.2768
▁minor	-10.2784
▁maternity	-10.2789
▁correspond	-10.2789
▁stock	-10.2795
▁deserve	-10.2795
▁types	-10.2801
▁largely	-10.2806
▁meat	-10.281
▁sovereign	-10.2819
ritten	-10.2819
▁Food	-10.282
▁arrive	-10.282
▁coordinate	-10.2827
TA	-10.2834
▁options	-10.2839
▁built	-10.2851
▁restructuring	-10.2851
▁significance	-10.2851
▁Left	-10.2851
▁sale	-10.2858
▁Br	-10.2866
▁decades	-10.2884
▁employ	-10.2903
ould	-10.2909
▁mix	-10.2914
X	-10.2914
▁amend	-10.2917
▁fields	-10.2918
▁remove	-10.2921
air	-10.2937
▁attend	-10.2946
tive	-10.2953
▁finances	-10.2955
▁liberal	-10.296
▁seeing	-10.2966
session	-10.2972
▁Strasbourg	-10.2977
▁bureaucracy	-10.2977
▁complicated	-10.298
▁Atlantic	-10.2982
▁historic	-10.2994
▁1999	-10.3009
▁Authority	-10.3009
▁phenomenon	-10.3009
▁intervene	-10.3009
▁Me	-10.3009
▁obtained	-10.3021
▁22	-10.3021
▁transitional	-10.3028
ka	-10.3033
▁label	-10.3039
▁channel	-10.304
▁disappear	-10.304
▁expense	-10.304
▁pharmaceutical	-10.304
▁foremost	-10.304
▁generations	-10.3047
▁release	-10.3048
▁vessels	-10.305
▁whereas	-10.3062
▁Danube	-10.3072
▁emerging	-10.3072
▁foster	-10.3072
▁surely	-10.3076
▁hence	-10.3079
▁precise	-10.3082
▁stressed	-10.3082
▁someone	-10.309
▁demanding	-10.3091
▁crops	-10.3095
▁imported	-10.3099
▁Subject	-10.3104
▁beneficial	-10.3104
▁eastern	-10.3104
▁licence	-10.3104
▁temporary	-10.3104
▁regrettable	-10.3104
▁indicators	-10.3126
▁extreme	-10.3147
▁Greens	-10.3149
▁healthy	-10.315
▁interpret	-10.3162
▁ecological	-10.3168
▁reiterate	-10.3168
▁rising	-10.317
til	-10.3174
▁eight	-10.3179
▁worrying	-10.3183
▁declarations	-10.32
▁radioactive	-10.3201
▁multiannual	-10.3201
▁suggested	-10.3205
▁Director	-10.3233
▁applicable	-10.3233
▁assurance	-10.3233
▁conservation	-10.3233
▁front	-10.3235
▁medicin	-10.324
mark	-10.3244
▁90	-10.3245
▁revised	-10.3245
▁negotiation	-10.3248
▁negotiated	-10.3252
lat	-10.3261
▁eradicat	-10.3265
▁satisfactory	-10.3265
▁Follow	-10.3265
▁Where	-10.3265
▁Both	-10.3268
▁20%	-10.3272
wa	-10.3277
▁losses	-10.3277
▁follows	-10.3289
▁correctly	-10.3291
▁commit	-10.3292
-20	-10.3292
▁Control	-10.3298
▁issued	-10.333
▁struggle	-10.3331
▁Centre	-10.3331
▁rational	-10.3331
▁previously	-10.3335
▁train	-10.3348
▁estimated	-10.3352
▁enforce	-10.3359
▁room	-10.3366
▁investors	-10.3368
▁saw	-10.3368
▁Head	-10.3368
east	-10.3395
▁radical	-10.3396
▁birth	-10.3396
▁resulted	-10.3397
▁29	-10.3406
▁successfully	-10.3423
ria	-10.3428
▁combined	-10.3429
▁revolution	-10.3429
▁below	-10.343
▁sit	-10.343
▁neighbours	-10.343
▁doubts	-10.3437
▁Or	-10.3444
ai	-10.3451
▁contributing	-10.3462
▁tonnes	-10.3462
▁Are	-10.3471
▁maintained	-10.3477
▁entered	-10.3477
▁treat	-10.3479
▁bus	-10.348
manufacture	-10.3496
▁vocation	-10.3496
▁warning	-10.3496
▁codecision	-10.3497
▁depends	-10.3516
▁Asia	-10.3526
▁Treaties	-10.3529
▁delighted	-10.3529
▁dynamic	-10.3529
▁raising	-10.3529
▁tension	-10.353
▁bl	-10.3534
▁Th	-10.3541
▁historical	-10.3544
▁respective	-10.3548
▁carrying	-10.3559
▁incident	-10.3561
▁Safety	-10.3562
▁modified	-10.3562
Rule	-10.357
▁impos	-10.3572
▁door	-10.3579
▁nation	-10.3583
▁deficits	-10.3584
▁commend	-10.3596
▁audit	-10.3596
▁completed	-10.3597
▁launched	-10.3606
▁inspection	-10.3609
ump	-10.3622
day	-10.3623
▁Socialist	-10.3624
▁Swedish	-10.363
▁Well	-10.3634
▁ignore	-10.3635
▁Will	-10.3636
▁essentially	-10.3637
▁frequently	-10.3638
▁partly	-10.3639
▁28	-10.3642
▁Does	-10.3645
▁reflected	-10.3649
▁weapons	-10.3664
▁trap	-10.3669
▁Regional	-10.3671
▁inequalities	-10.3697
▁tragedy	-10.3697
▁Work	-10.3697
▁promised	-10.37
▁incentives	-10.3705
▁heading	-10.3715
ug	-10.3722
▁super	-10.3732
▁exemption	-10.3742
▁govern	-10.3744
purely	-10.3749
▁...	-10.3758
▁noise	-10.3763
ibility	-10.3765
▁Afghanistan	-10.3765
▁cheap	-10.3765
▁implications	-10.3765
▁reconstruction	-10.3766
▁net	-10.3771
▁affects	-10.3774
▁socio	-10.3775
▁breach	-10.3776
▁wider	-10.3787
▁complement	-10.3798
▁occur	-10.3798
▁PPE	-10.38
▁approximat	-10.38
▁belief	-10.38
▁closure	-10.38
▁harmonization	-10.38
▁rare	-10.38
▁60	-10.3802
▁EP	-10.3806
▁tools	-10.3806
institutional	-10.3808
▁macro	-10.3834
▁livestock	-10.3834
▁competent	-10.3835
level	-10.3847
▁sustain	-10.3864
▁fairly	-10.3868
▁experiencing	-10.3869
▁infringement	-10.3869
▁lift	-10.3869
▁generation	-10.3871
▁Ver	-10.3875
▁qualifications	-10.3877
▁migrants	-10.389
▁united	-10.3895
▁judgment	-10.3903
ology	-10.391
▁indicated	-10.3936
▁swift	-10.3938
COM	-10.394
▁treaties	-10.394
▁considerably	-10.3946
▁constant	-10.3951
▁70	-10.3954
stitution	-10.3957
▁Chernobyl	-10.3973
▁shortcomings	-10.3973
▁couple	-10.3973
▁blue	-10.4008
▁seeks	-10.401
▁chosen	-10.4011
▁violation	-10.4038
▁minister	-10.4039
▁financed	-10.4041
▁1990	-10.4043
▁confident	-10.4043
▁consolidate	-10.4043
▁summer	-10.4044
▁occurred	-10.4044
▁Z	-10.4046
▁Any	-10.4047
aries	-10.4056
▁addressing	-10.4058
▁perform	-10.4076
▁easily	-10.4078
▁entail	-10.4078
▁societies	-10.4078
▁daily	-10.4078
▁sorry	-10.4078
02	-10.4084
▁remaining	-10.4094
▁intentions	-10.4102
▁constitutes	-10.4104
▁category	-10.4113
place	-10.4122
Christian	-10.4123
unctioning	-10.4146
▁redundancies	-10.4149
▁utmost	-10.4149
▁Korea	-10.4149
▁fire	-10.4152
▁producing	-10.4156
▁briefly	-10.4177
▁core	-10.4181
▁highlights	-10.4183
▁Cancún	-10.4184
▁afraid	-10.4184
fully	-10.4185
ception	-10.4187
▁Most	-10.4189
▁obliged	-10.4192
▁26	-10.4209
▁protein	-10.422
▁clean	-10.422
▁exceed	-10.422
▁disabled	-10.422
▁parents	-10.422
▁regulate	-10.4231
▁incorporated	-10.424
▁flows	-10.4243
▁tragic	-10.4256
▁prompt	-10.4256
▁threats	-10.4258
right	-10.4261
depth	-10.4262
▁cities	-10.4265
▁Denmark	-10.4292
▁argue	-10.4292
▁science	-10.4292
▁blame	-10.4292
related	-10.4302
▁formula	-10.4304
▁contributed	-10.4306
wide	-10.4307
▁speeches	-10.431
▁hundreds	-10.431
▁character	-10.4327
▁necessarily	-10.4328
▁occupation	-10.4328
▁picture	-10.4328
▁decline	-10.4328
▁liberalization	-10.4329
▁reaching	-10.4353
▁commun	-10.4359
▁imbalances	-10.4359
▁differ	-10.436
▁Britain	-10.4364
▁consolidation	-10.4364
▁journalist	-10.4364
▁physical	-10.4364
▁insurance	-10.4364
▁ruling	-10.4364
▁remark	-10.4375
▁certainty	-10.4378
▁unanimously	-10.4382
▁meant	-10.4393
▁ageing	-10.4395
▁Algeria	-10.4401
▁Taiwan	-10.4401
K	-10.4409
▁West	-10.4411
▁Portuguese	-10.4437
▁Tourism	-10.4437
▁consequence	-10.444
country	-10.4448
▁ob	-10.4456
▁freely	-10.4457
▁deserves	-10.4466
▁advice	-10.4474
▁willingness	-10.4475
▁openness	-10.4486
▁debated	-10.4502
▁OSCE	-10.451
▁Just	-10.4511
▁Time	-10.4511
▁ski	-10.4514
▁weaken	-10.4523
▁na	-10.4523
▁failing	-10.4533
▁helped	-10.4539
▁broadcasting	-10.4543
▁dramatic	-10.4547
▁widespread	-10.4547
▁rigorous	-10.4547
▁earn	-10.4548
CS	-10.4555
art	-10.4557
▁ideal	-10.4568
▁Car	-10.457
▁bearing	-10.4576
▁Switzerland	-10.4584
▁alcohol	-10.4584
▁faith	-10.4584
supervisory	-10.4584
▁await	-10.4585
▁users	-10.4595
▁win	-10.4599
▁Ko	-10.4621
▁bureaucratic	-10.4622
▁himself	-10.4622
▁intellectual	-10.4622
▁reservations	-10.4622
▁causing	-10.4622
▁sharing	-10.4622
▁root	-10.4624
▁environmentally	-10.4637
FI	-10.4643
▁undertake	-10.4647
▁examined	-10.4657
▁Solidarity	-10.4659
▁opposite	-10.4659
▁Syria	-10.4659
▁merit	-10.4659
▁proof	-10.466
▁centres	-10.4672
▁experienced	-10.4696
▁Slovenia	-10.4696
▁female	-10.4696
▁unnecessary	-10.4696
▁sought	-10.4696
▁frontiers	-10.4697
▁solely	-10.4697
▁lend	-10.47
Parliament	-10.4708
▁succeeded	-10.4709
▁She	-10.4716
▁medicine	-10.4725
▁efficiently	-10.473
▁electric	-10.473
▁War	-10.4732
▁expensive	-10.4734
▁motor	-10.4734
▁multinational	-10.4734
▁accessible	-10.4738
▁appoint	-10.4768
▁supplement	-10.477
▁blood	-10.4772
▁leaving	-10.4772
▁petition	-10.4772
▁satisfied	-10.4772
▁detriment	-10.4772
▁Nordic	-10.4772
▁Balkans	-10.4774
▁System	-10.481
▁chemical	-10.481
▁legitimacy	-10.481
▁secret	-10.481
▁pursued	-10.4821
▁estimate	-10.4823
▁acting	-10.4841
▁opt	-10.4844
▁finish	-10.4848
▁refuse	-10.4861
▁excluded	-10.4863
▁gradually	-10.4865
11	-10.4873
▁offering	-10.4885
▁afternoon	-10.4886
▁strike	-10.4886
▁declared	-10.4909
▁postal	-10.4919
▁select	-10.492
▁fruit	-10.4922
▁Every	-10.4923
▁necessity	-10.4924
▁observation	-10.4924
▁watch	-10.4924
▁creative	-10.4924
van	-10.4929
▁perfectly	-10.494
ily	-10.4954
▁players	-10.4955
▁object	-10.4962
▁Thursday	-10.4963
▁Great	-10.4963
▁gear	-10.4963
▁assets	-10.4963
ko	-10.4979
▁80	-10.4984
▁Palestinian	-10.5001
▁division	-10.5001
▁mobilise	-10.5001
▁stimulate	-10.5001
▁Civil	-10.5001
▁timetable	-10.5001
▁lawyer	-10.5003
▁recover	-10.503
▁powerful	-10.5038
▁Obviously	-10.504
▁abolition	-10.504
▁inclusive	-10.504
▁manufacturers	-10.504
▁street	-10.504
▁Plan	-10.5043
▁149	-10.5047
▁flow	-10.5054
EEC	-10.5063
▁recognized	-10.5078
▁endeavour	-10.5079
▁prevail	-10.5079
▁disappoint	-10.5084
▁passenger	-10.5094
▁wind	-10.5105
▁showing	-10.5107
▁compensat	-10.5113
▁Kosovo	-10.5118
▁principal	-10.5118
▁drop	-10.5119
▁went	-10.512
▁tourist	-10.5128
▁regardless	-10.5137
▁insufficient	-10.5149
▁wages	-10.5151
▁worst	-10.5157
▁Czech	-10.5196
▁house	-10.5197
EN	-10.5225
▁den	-10.5227
▁consist	-10.5236
▁Arctic	-10.5236
▁collapse	-10.5236
▁component	-10.5236
▁predict	-10.5236
▁poll	-10.5239
▁settlement	-10.5239
▁EC	-10.5241
▁opened	-10.5243
lan	-10.5248
▁fourth	-10.5249
▁preventive	-10.526
▁rely	-10.5271
▁retirement	-10.5276
▁terrible	-10.5276
▁unilateral	-10.5276
▁Europol	-10.5277
▁trial	-10.5299
▁mistakes	-10.5304
PA	-10.5306
▁moreover	-10.5312
▁Culture	-10.5316
▁Neighbourhood	-10.5316
▁explicit	-10.5316
▁purchase	-10.5316
▁shift	-10.5316
af	-10.5322
atory	-10.5327
▁defending	-10.5335
cle	-10.5335
▁hardly	-10.5337
▁smaller	-10.5345
▁lie	-10.5349
▁art	-10.535
▁Progress	-10.5356
▁battle	-10.5356
▁inflation	-10.5356
▁neighbourhood	-10.5356
▁rail	-10.5395
▁imperative	-10.5396
▁justify	-10.5396
▁yes	-10.5396
General	-10.541
▁exclusive	-10.5414
▁eyes	-10.5426
▁gross	-10.5436
▁arising	-10.5437
▁camp	-10.5441
▁observe	-10.5451
▁stipulat	-10.5476
▁hazardous	-10.5477
▁exert	-10.548
▁restor	-10.5494
▁removed	-10.5508
▁stabilis	-10.5513
▁Regard	-10.5517
▁dumping	-10.5517
▁distance	-10.5517
▁stance	-10.5527
▁globalisation	-10.5528
▁negotiate	-10.5533
▁fit	-10.5534
▁persist	-10.5559
▁Islamic	-10.5561
▁poorest	-10.5566
4/	-10.5567
▁drafted	-10.5568
▁aside	-10.5576
▁cow	-10.5578
19	-10.5583
▁quota	-10.5585
▁unity	-10.5591
Cohesion	-10.5599
▁consistency	-10.5599
▁mandatory	-10.5599
▁vast	-10.5599
debate	-10.5614
▁declare	-10.5616
▁democrat	-10.5633
▁Montenegro	-10.564
▁accurate	-10.564
▁digital	-10.564
▁electoral	-10.564
▁stakeholders	-10.564
▁running	-10.564
▁aviation	-10.5641
▁socialist	-10.5641
▁features	-10.5641
▁endorsed	-10.5652
(2)	-10.5655
▁suggestions	-10.5665
▁productive	-10.5671
▁censure	-10.5681
▁tape	-10.5681
▁Yes	-10.5681
▁optimis	-10.5682
▁offence	-10.569
▁Fundamental	-10.5723
▁shape	-10.5723
▁radio	-10.5723
▁complaints	-10.5725
2/	-10.5727
▁everybody	-10.5765
▁stringent	-10.5765
▁image	-10.5765
▁solid	-10.5765
▁Far	-10.5774
▁USA	-10.5777
▁regulated	-10.5793
▁Innovation	-10.5806
▁virtual	-10.5806
grade	-10.5806
▁deeply	-10.5812
▁whereby	-10.5815
▁turned	-10.582
▁1992	-10.5848
▁Danish	-10.5848
▁desirable	-10.5848
▁harmful	-10.585
▁sake	-10.585
▁team	-10.5855
▁compete	-10.589
▁variety	-10.5891
▁violate	-10.5891
▁progressive	-10.5895
▁abroad	-10.5933
▁cattle	-10.5933
▁participating	-10.5933
▁depriv	-10.5933
▁airlines	-10.5933
▁reverse	-10.5933
▁1993	-10.5934
▁unlike	-10.5936
▁prevented	-10.5938
▁San	-10.5958
off	-10.5962
▁south	-10.5975
▁Latvia	-10.5976
▁continuous	-10.5976
▁foodstuffs	-10.5976
▁chairman	-10.5977
í	-10.6018
placing	-10.6018
▁collaboration	-10.602
▁stresses	-10.6023
▁basically	-10.6027
▁delegat	-10.6044
▁transaction	-10.6053
▁condemned	-10.606
▁programming	-10.6061
▁sphere	-10.6061
▁consult	-10.6079
▁incorporate	-10.608
▁update	-10.6087
▁Chair	-10.6104
▁throw	-10.6105
▁Democratic	-10.6106
▁El	-10.6115
▁inside	-10.6122
▁repeatedly	-10.6126
▁objection	-10.6144
▁resident	-10.6148
▁ratification	-10.6148
▁tribute	-10.6148
▁sw	-10.6155
▁shortly	-10.6158
wing	-10.6181
▁Petitions	-10.6191
▁destruction	-10.6191
▁earthquake	-10.6191
▁popular	-10.6191
▁instability	-10.6191
▁distinction	-10.6196
▁kill	-10.62
▁unanimous	-10.6213
▁armed	-10.6216
▁secur	-10.6223
▁jointly	-10.6226
▁victim	-10.623
▁Year	-10.6235
▁Zaire	-10.6235
▁imagine	-10.6235
▁satellite	-10.6235
▁leader	-10.6252
▁dossier	-10.6279
▁housing	-10.6279
▁uncertainty	-10.6279
▁translate	-10.6281
▁wording	-10.6307
▁prospect	-10.6319
▁1998	-10.6323
▁exacerbat	-10.6323
▁inquiry	-10.6323
▁alongside	-10.6323
▁northern	-10.6323
▁qua	-10.6325
point	-10.634
▁undertaking	-10.6364
▁intensive	-10.6367
▁percentage	-10.6367
▁precarious	-10.6367
▁citizenship	-10.6368
▁widely	-10.638
▁restricted	-10.6384
▁repeated	-10.6395
▁broader	-10.6407
▁Schulz	-10.6411
▁beneficiaries	-10.6411
ccompany	-10.6411
▁clearer	-10.6412
▁dependence	-10.6414
▁educational	-10.6431
effect	-10.6433
▁pan	-10.6436
▁Alzheimer	-10.6456
▁Citizens	-10.6456
▁cereal	-10.6456
▁prerequisite	-10.6456
▁robust	-10.6456
▁simplified	-10.6456
▁torture	-10.6456
▁smart	-10.6456
▁Monti	-10.6457
▁Jo	-10.6459
ick	-10.6464
hold	-10.6471
▁advanced	-10.6474
▁suspended	-10.6479
▁presentation	-10.6501
▁Labour	-10.6501
▁Soviet	-10.6501
▁managing	-10.6501
▁unanimity	-10.6501
▁became	-10.6501
▁Other	-10.6501
▁Cuba	-10.6502
▁airport	-10.6503
▁authorisation	-10.6504
▁attractive	-10.6504
▁larger	-10.6512
▁Day	-10.6519
standing	-10.6524
▁began	-10.6528
▁Bas	-10.6543
▁Protocol	-10.6546
▁patient	-10.6546
▁Israeli	-10.6549
ept	-10.6549
▁investigate	-10.6563
▁listened	-10.658
▁irregularities	-10.6591
▁students	-10.6591
4-01	-10.6591
▁ECR	-10.6593
▁proud	-10.6597
▁Clearly	-10.6637
▁dictatorship	-10.6637
▁saving	-10.6639
▁strictly	-10.6644
▁minute	-10.6646
▁explained	-10.6649
IS	-10.665
▁consulted	-10.6673
▁lobby	-10.6682
▁Polish	-10.6682
▁surround	-10.6682
▁Association	-10.6682
▁disparities	-10.6682
▁forgotten	-10.6682
▁supplies	-10.6682
▁macroeconomic	-10.6683
▁coastal	-10.669
▁fewer	-10.6697
▁none	-10.671
▁pursuing	-10.6714
▁realize	-10.6724
▁covering	-10.6726
▁Through	-10.6728
▁accompanied	-10.6728
▁integrity	-10.6728
▁contrast	-10.6728
▁fresh	-10.6728
▁fishery	-10.6728
▁viable	-10.6729
▁nine	-10.6731
▁shop	-10.6734
▁cutting	-10.6739
▁adaptation	-10.6741
25	-10.6766
hand	-10.6766
▁helpful	-10.6768
▁English	-10.6774
▁Information	-10.6774
▁Organization	-10.6774
▁clarity	-10.6774
▁comparison	-10.6774
▁facilitating	-10.6774
▁registration	-10.6774
▁violent	-10.6774
▁shame	-10.6774
▁confine	-10.6774
▁supplementary	-10.6776
▁permitted	-10.6777
ker	-10.6785
▁Bar	-10.6786
▁usual	-10.6792
ung	-10.6792
▁transit	-10.6795
▁2014	-10.682
▁Amsterdam	-10.682
▁criticise	-10.682
▁scrutiny	-10.682
▁Small	-10.6821
▁replaced	-10.6822
▁passport	-10.6822
▁congratulat	-10.6826
▁assert	-10.6828
▁acceptance	-10.6834
▁profession	-10.6846
▁city	-10.686
▁residence	-10.6867
▁ratified	-10.6867
▁unique	-10.6867
▁sex	-10.6873
state	-10.6896
▁renew	-10.6899
▁Objective	-10.6914
▁categories	-10.6914
▁elderly	-10.6914
▁privilege	-10.6914
▁relocation	-10.6914
▁pilot	-10.6914
▁black	-10.6915
▁employers	-10.692
operation	-10.693
▁subsequent	-10.6939
▁Slovakia	-10.695
▁punish	-10.6957
▁volume	-10.6961
▁acquire	-10.6961
▁congratulations	-10.6962
▁halt	-10.6962
▁night	-10.6965
▁deny	-10.6974
▁adverse	-10.7008
▁equivalent	-10.7008
▁examination	-10.7008
▁shock	-10.7008
▁spectrum	-10.7008
▁interim	-10.7018
▁sites	-10.7018
▁custom	-10.7019
▁refused	-10.7038
tlantic	-10.7049
▁profound	-10.7055
▁schedule	-10.7055
▁territories	-10.7055
▁marine	-10.7055
▁tighten	-10.7058
▁restrictive	-10.7062
quality	-10.7074
▁quarter	-10.7077
ong	-10.7086
▁attract	-10.71
▁Macedonia	-10.7103
▁Wednesday	-10.7103
▁expansion	-10.7103
▁threshold	-10.7103
▁cease	-10.7103
▁roll	-10.7106
▁ignored	-10.7107
▁logical	-10.7124
▁relate	-10.7138
▁guide	-10.714
▁35	-10.7145
▁applicant	-10.7151
▁compatible	-10.7151
▁counterfeit	-10.7151
▁execution	-10.7151
▁vaccine	-10.7151
▁stream	-10.7151
▁sport	-10.7152
▁eye	-10.7163
▁harmonised	-10.718
like	-10.7181
ü	-10.7199
▁inhabitants	-10.7199
▁40%	-10.7201
▁losing	-10.7202
▁expert	-10.7211
▁marked	-10.7212
▁employed	-10.7213
▁seat	-10.7237
ective	-10.7238
even	-10.724
▁clarification	-10.7247
▁concentration	-10.7247
▁impetus	-10.7247
▁misleading	-10.7247
▁receiving	-10.7247
▁recession	-10.7247
▁game	-10.7247
▁consequently	-10.7251
▁appointment	-10.7252
▁2005	-10.7254
6/	-10.7263
▁disappointed	-10.729
▁dictator	-10.7295
Herzegovina	-10.7296
▁familiar	-10.7296
▁Two	-10.7296
▁begun	-10.7296
▁Japanese	-10.7298
visual	-10.7298
▁surprised	-10.7313
human	-10.7322
▁gradual	-10.7323
▁dead	-10.7326
print	-10.7331
▁sincere	-10.7336
▁Copenhagen	-10.7344
▁Otherwise	-10.7344
▁micro	-10.7344
▁persecution	-10.7344
▁timber	-10.7344
▁track	-10.7344
▁repression	-10.7348
▁punishment	-10.7349
▁Who	-10.7353
▁threatened	-10.736
▁exclusively	-10.7371
efore	-10.7373
▁300	-10.7384
▁reconciliation	-10.7393
▁resistance	-10.7395
▁stick	-10.7395
▁reactors	-10.7397
▁formulate	-10.7403
▁Fourth	-10.7443
▁encounter	-10.7443
▁characteristics	-10.7443
▁grave	-10.7443
▁genetically	-10.7444
▁outset	-10.7445
▁noon	-10.7455
work	-10.7466
▁Fukushima	-10.7492
▁Luxembourg	-10.7492
▁neutral	-10.7492
▁recruit	-10.7492
▁book	-10.7495
▁solved	-10.7503
how	-10.7504
▁contradiction	-10.7506
▁envisaged	-10.7507
▁older	-10.7527
▁scandal	-10.754
▁conviction	-10.7542
▁damaging	-10.7542
▁defining	-10.7542
▁procedural	-10.7542
▁evident	-10.7542
▁storage	-10.7542
▁title	-10.7542
DA	-10.7569
back	-10.7581
▁Gaddafi	-10.7592
▁ceiling	-10.7592
▁forecast	-10.7592
▁search	-10.7592
▁brutal	-10.7592
▁Congo	-10.7594
▁dual	-10.76
7/	-10.7603
▁seekers	-10.7606
empt	-10.7618
ER	-10.7627
card	-10.7638
▁broke	-10.7642
umb	-10.7645
▁justification	-10.766
▁sincerely	-10.7665
▁refugee	-10.767
▁Industrial	-10.7693
▁coherence	-10.7693
▁controversial	-10.7693
▁disregard	-10.7693
▁parallel	-10.7693
▁tangible	-10.7693
▁smooth	-10.7693
▁settle	-10.7693
▁transposition	-10.7694
▁deregulation	-10.7695
▁systematic	-10.7703
▁accountability	-10.7707
▁reflection	-10.7724
▁suggestion	-10.7729
▁killed	-10.7733
▁ALDE	-10.7743
▁fifth	-10.7743
▁Burma	-10.7743
▁Common	-10.7745
▁undermin	-10.7762
CO	-10.7769
▁distributed	-10.7772
▁informal	-10.7773
▁Youth	-10.7778
▁Confedera	-10.7795
▁corporate	-10.7796
▁Report	-10.7798
▁Sahara	-10.7799
▁alter	-10.7801
direct	-10.7819
▁hundred	-10.782
EGF	-10.782
▁adjust	-10.7831
4-03	-10.7846
▁engaged	-10.7854
▁fill	-10.7861
▁enterprise	-10.7872
▁perfect	-10.7876
▁mad	-10.7876
▁Drug	-10.7897
▁Secretary	-10.7897
▁Like	-10.79
down	-10.7901
▁extract	-10.7903
▁friendly	-10.7913
▁substantially	-10.7913
▁Hence	-10.7914
▁Du	-10.7915
▁acknowledged	-10.792
nnual	-10.7921
▁hour	-10.793
▁Region	-10.7938
▁Muslim	-10.7949
▁frank	-10.7949
▁resolving	-10.7949
▁shipping	-10.7949
▁constraints	-10.795
▁tonight	-10.7952
▁foundation	-10.7967
▁alarming	-10.7978
▁apparent	-10.798
▁Pacific	-10.8001
▁coordinating	-10.8001
▁Gulf	-10.8001
▁railway	-10.8002
▁Norway	-10.8002
ivity	-10.8017
▁publish	-10.8019
▁Trans	-10.8053
▁Naturally	-10.8054
▁criterion	-10.8054
▁xenophobia	-10.8054
▁horizontal	-10.8054
▁continuation	-10.806
▁uphold	-10.8066
connect	-10.8079
▁adapted	-10.809
▁Yemen	-10.8106
▁recycling	-10.8106
▁zero	-10.8106
▁sold	-10.8108
▁cope	-10.8114
▁north	-10.812
▁die	-10.8135
▁absurd	-10.8159
▁extraordinary	-10.8159
▁persuade	-10.8159
▁precondition	-10.8159
▁admitted	-10.8162
▁fo	-10.8164
ncies	-10.8168
▁controlled	-10.8172
▁2004	-10.8182
financing	-10.8186
▁describe	-10.8188
▁derogation	-10.8212
▁instruct	-10.8212
▁deliberate	-10.8212
▁translation	-10.8212
▁orientation	-10.8212
▁rescue	-10.8212
▁actors	-10.823
▁outlined	-10.8235
▁subsequently	-10.8237
▁worthy	-10.8256
▁Bureau	-10.8266
▁Indonesia	-10.8266
▁connected	-10.8266
▁fee	-10.8267
▁Iranian	-10.8269
▁abstain	-10.8285
mar	-10.831
▁Lo	-10.831
▁Friday	-10.832
▁completion	-10.832
▁discover	-10.832
▁newspaper	-10.832
▁prime	-10.832
▁Also	-10.832
▁30%	-10.8325
3%	-10.8327
bove	-10.8339
▁usually	-10.8345
range	-10.8348
▁observed	-10.8352
▁legislat	-10.8355
▁engine	-10.8374
à	-10.8374
▁CFSP	-10.8374
▁anniversary	-10.8374
▁exposed	-10.8374
▁satisfaction	-10.8374
▁liability	-10.8374
▁Frontex	-10.8374
▁regularly	-10.8374
▁align	-10.8376
▁imm	-10.8376
▁missing	-10.8377
AS	-10.8398
initiative	-10.8402
▁integrate	-10.8403
▁wherever	-10.8416
most	-10.8418
▁Geneva	-10.8428
▁mobile	-10.8428
▁pretext	-10.8428
▁reaffirm	-10.8428
▁ethical	-10.8428
▁narrow	-10.8428
▁commission	-10.8428
▁diplomacy	-10.8429
▁rejection	-10.8442
reaching	-10.8445
pproval	-10.8449
▁adhere	-10.845
▁stricter	-10.8455
▁symbol	-10.8469
▁applaud	-10.8483
▁satisfy	-10.8483
▁lobbyists	-10.8483
▁suit	-10.8492
▁complexity	-10.8495
▁marginal	-10.851
▁margin	-10.851
▁released	-10.8525
▁disastrous	-10.8538
▁jurisdiction	-10.8538
▁manufacturing	-10.8538
▁neglect	-10.8538
▁repercussions	-10.8538
▁fault	-10.8538
▁sight	-10.8541
▁divided	-10.856
▁pain	-10.8575
▁preced	-10.859
▁bill	-10.8592
▁Education	-10.8593
▁constituency	-10.8593
▁examining	-10.8593
▁greenhouse	-10.8593
▁Among	-10.8593
▁pleasure	-10.8593
▁wave	-10.8593
▁initially	-10.8595
▁flag	-10.8595
▁detect	-10.8595
▁Per	-10.8595
▁waiver	-10.8604
J	-10.8622
▁incentive	-10.8635
▁Please	-10.8648
▁immunity	-10.8648
▁harmonize	-10.8648
olog	-10.866
▁outstanding	-10.8662
▁Romanian	-10.8672
▁uncertain	-10.8703
▁elimination	-10.8704
▁intelligent	-10.8704
▁struck	-10.8704
▁convey	-10.8704
▁tolerance	-10.8704
▁broadcast	-10.871
law	-10.8717
▁harmonis	-10.872
▁except	-10.8736
▁Business	-10.876
▁enshrined	-10.876
▁federal	-10.876
▁advise	-10.8762
05	-10.8771
governmental	-10.8816
uclear	-10.8816
▁definitive	-10.8817
▁excuse	-10.8817
▁expertise	-10.8818
▁ECB	-10.8819
▁Egyptian	-10.8822
suing	-10.8827
▁Tunisian	-10.8851
▁unfortunate	-10.8852
▁Mon	-10.8867
▁distinguish	-10.8874
▁earmarked	-10.8874
▁executive	-10.8874
▁regulating	-10.8874
▁indigen	-10.8874
▁father	-10.8874
▁focuses	-10.8875
▁cast	-10.8893
▁withdrawal	-10.89
▁proven	-10.8907
▁quick	-10.8909
▁Similarly	-10.8931
▁ecosystem	-10.8931
▁falsified	-10.8931
▁cycle	-10.8931
▁transnational	-10.8932
▁Rome	-10.8934
personnel	-10.8935
▁everywhere	-10.8936
▁prisoners	-10.8939
▁rid	-10.895
▁providers	-10.8956
▁Libyan	-10.8959
determination	-10.8962
discrimination	-10.8962
▁establishes	-10.8986
▁solving	-10.8988
▁suspect	-10.8988
▁sympathy	-10.8988
▁volatility	-10.8988
▁woman	-10.8988
▁pragmatic	-10.8988
▁Monday	-10.8989
▁officers	-10.8993
▁bio	-10.9017
udgetary	-10.9042
▁Barnier	-10.9046
▁accelerate	-10.9046
▁eurozone	-10.9046
▁experiment	-10.9046
▁overwhelming	-10.9046
▁strive	-10.9046
▁keen	-10.9046
▁panel	-10.905
▁London	-10.9104
▁scenario	-10.9104
▁weaknesses	-10.9104
▁dementia	-10.9104
▁encouragement	-10.9136
fund	-10.9137
▁obstacle	-10.9159
▁entrepreneurs	-10.9162
▁comparable	-10.9163
▁journey	-10.9163
▁survive	-10.9163
▁visible	-10.9163
▁yourself	-10.9163
▁IMF	-10.9163
▁modernisation	-10.9167
▁lesson	-10.9191
▁convince	-10.9197
RE	-10.92
mail	-10.922
▁Eurobonds	-10.9222
▁confusion	-10.9222
▁exhaust	-10.9222
▁judiciary	-10.9222
▁habit	-10.9222
▁complie	-10.9222
ranging	-10.9222
▁praise	-10.9222
▁Tak	-10.9234
▁outline	-10.9243
▁map	-10.9254
▁divide	-10.9256
▁logic	-10.9272
▁decade	-10.9279
▁disturb	-10.9281
▁sudden	-10.9281
▁supplier	-10.9281
▁trouble	-10.9281
▁decommissioning	-10.9292
▁tolerate	-10.9302
▁accused	-10.9306
known	-10.9314
▁exclude	-10.9316
▁transform	-10.9334
▁feature	-10.9339
discriminatory	-10.934
▁identification	-10.934
▁Reding	-10.9343
▁arm	-10.9366
ó	-10.94
▁synergies	-10.94
▁doctor	-10.94
▁eventually	-10.94
guard	-10.94
▁thousand	-10.94
▁dedicat	-10.94
▁automatically	-10.9401
▁donor	-10.9406
▁10%	-10.9412
▁fixed	-10.9422
beit	-10.9424
national	-10.9433
ham	-10.9439
▁equip	-10.9457
▁closing	-10.946
▁conscience	-10.946
▁deplore	-10.946
▁unprecedented	-10.946
4-00	-10.946
▁selection	-10.9468
▁stem	-10.9471
▁Second	-10.9499
▁coast	-10.951
▁149(8))	-10.9521
▁contamination	-10.9521
▁platform	-10.9521
▁slightly	-10.9521
▁inequality	-10.9521
▁invent	-10.9522
▁Everyone	-10.9522
▁transferred	-10.9525
▁Area	-10.956
▁Oomen	-10.9582
comprehensible	-10.9582
▁constituent	-10.9582
▁premium	-10.9582
▁preservation	-10.9582
▁reintegration	-10.9582
▁survival	-10.9582
▁universities	-10.9582
▁blind	-10.9582
▁vehicle	-10.9585
▁shortage	-10.9599
▁specialist	-10.9617
democratic	-10.9617
▁fate	-10.963
productive	-10.9641
▁interference	-10.9643
▁middle	-10.9643
▁warmly	-10.9643
▁illustrate	-10.9649
▁army	-10.9654
Q	-10.9659
▁apparently	-10.9669
▁escape	-10.9705
▁gather	-10.9705
▁maintenance	-10.9705
▁match	-10.9705
Mediterranean	-10.9741
▁Third	-10.9745
▁plea	-10.9765
Ruijten	-10.9767
▁Arrest	-10.9767
▁Millennium	-10.9767
▁inevitably	-10.9767
▁Annex	-10.9767
▁milk	-10.9767
▁wake	-10.9767
▁bomb	-10.9771
▁borne	-10.9779
▁devoted	-10.9783
▁condemnation	-10.9788
▁determin	-10.979
▁distribut	-10.9791
regional	-10.9804
▁organise	-10.9805
▁Bangemann	-10.983
▁Federal	-10.983
▁deciding	-10.983
▁pluralism	-10.983
▁overlook	-10.983
▁workforce	-10.983
▁observers	-10.9832
▁meantime	-10.9834
▁pick	-10.9836
▁Burundi	-10.9893
▁Decision	-10.9893
▁Fischler	-10.9893
▁Inquiry	-10.9893
▁statute	-10.9893
▁productivity	-10.9894
2%	-10.9906
▁renewal	-10.9907
▁initiated	-10.9915
▁geo	-10.9933
conventional	-10.9934
war	-10.9935
-2013	-10.9955
▁Warrant	-10.9956
▁denounce	-10.9956
▁remedy	-10.9956
▁tobacco	-10.9956
▁troops	-10.9956
▁Freedom	-10.9956
▁database	-10.9956
▁location	-10.9956
▁wise	-10.9962
building	-10.9999
frontier	-11.0014
▁earth	-11.002
▁audio	-11.002
▁Law	-11.0028
SMEs	-11.0057
▁revise	-11.0059
▁construct	-11.0076
▁Agenda	-11.0084
▁aquaculture	-11.0084
▁privacy	-11.0084
▁whatsoever	-11.0084
▁resort	-11.0084
▁Constitution	-11.0085
▁won	-11.0097
▁coach	-11.0098
▁fallen	-11.0114
▁automatic	-11.0147
▁Conservative	-11.0148
▁Rompuy	-11.0148
▁Ukrainian	-11.0148
▁enhancing	-11.0148
▁fragile	-11.0148
▁guilty	-11.0148
▁reconcile	-11.0148
▁presidential	-11.0149
▁travelling	-11.0155
▁resumed	-11.0159
▁sacrifice	-11.0168
disproportionate	-11.0213
▁Liberties	-11.0213
▁Madrid	-11.0213
▁monopoly	-11.0213
▁straight	-11.0213
▁rape	-11.0213
▁traceability	-11.0214
TS	-11.0217
▁affair	-11.0229
raft	-11.0229
oriented	-11.0232
Ivoire	-11.0278
▁Euratom	-11.0278
▁Stockholm	-11.0278
▁linguistic	-11.0278
▁twice	-11.0278
▁hinder	-11.0278
▁stopped	-11.0279
▁Tibetan	-11.0281
▁computer	-11.0344
▁fifteen	-11.0344
▁nobody	-11.0344
▁reassure	-11.0344
▁false	-11.0344
▁isolated	-11.0345
▁fulfilling	-11.035
legislator	-11.0357
▁crop	-11.0368
▁Rwanda	-11.041
▁anticipate	-11.041
▁destination	-11.041
▁preliminary	-11.041
▁adult	-11.0411
tress	-11.0437
▁College	-11.0477
▁Côte	-11.0477
▁Special	-11.0477
▁trigger	-11.0477
▁venture	-11.0477
▁toxic	-11.0478
▁2002	-11.0486
▁president	-11.0543
▁compliment	-11.0544
▁concluding	-11.0544
▁extremist	-11.0544
▁ideological	-11.0544
▁removing	-11.0544
▁underestimate	-11.0544
▁dream	-11.0544
▁conceal	-11.0544
▁resist	-11.0544
▁strange	-11.0546
▁devise	-11.0558
▁initiate	-11.0587
▁surprise	-11.0587
▁display	-11.0612
▁Goals	-11.0612
▁Nonetheless	-11.0612
▁Scotland	-11.0612
▁artificial	-11.0612
▁disabilities	-11.0612
▁epidemic	-11.0612
▁recital	-11.0612
▁refusal	-11.0612
▁irresp	-11.0612
▁sharp	-11.0612
▁stating	-11.0634
▁suspend	-11.0645
▁Lu	-11.067
echnological	-11.0678
▁Azerbaijan	-11.068
▁Bonino	-11.068
▁approving	-11.068
▁criticize	-11.068
▁disseminat	-11.068
▁energies	-11.068
▁Prize	-11.068
▁alleged	-11.068
▁repeal	-11.068
4-02	-11.068
▁empty	-11.068
▁modest	-11.068
▁50%	-11.0685
▁Basel	-11.0685
▁Reform	-11.0748
▁diverse	-11.0748
▁telephone	-11.0748
▁tremendous	-11.0748
graphic	-11.0748
position	-11.0757
▁Anti	-11.0758
▁vary	-11.0761
▁taxpayer	-11.0775
establish	-11.0791
friendly	-11.0791
9%	-11.0795
SV	-11.0802
▁correction	-11.0803
▁EEAS	-11.0817
▁Kinnock	-11.0817
▁capabilities	-11.0817
▁irresponsible	-11.0817
▁technique	-11.0817
▁twenty	-11.0817
▁unequivocal	-11.0817
▁deepening	-11.0817
▁fulfilled	-11.0822
▁guid	-11.0831
▁Seventh	-11.0887
▁announcement	-11.0887
▁fought	-11.0887
▁heavily	-11.0887
▁practise	-11.0887
▁ownership	-11.0887
▁inspire	-11.0887
▁precedent	-11.089
▁possess	-11.0909
aside	-11.0912
▁arrangement	-11.0916
▁ultimate	-11.0935
ium	-11.0939
ological	-11.0943
▁Bahrain	-11.0957
▁Cypriot	-11.0957
▁atmosphere	-11.0957
▁homosexual	-11.0957
▁integral	-11.0957
▁prejudice	-11.0957
▁removal	-11.0957
▁scientists	-11.0957
▁vegetable	-11.0957
▁pace	-11.0957
▁trialogue	-11.0957
style	-11.0965
▁accord	-11.0975
▁diploma	-11.1025
▁Industry	-11.1027
▁attribut	-11.1027
▁indispensable	-11.1027
▁pesticide	-11.1027
▁ratify	-11.1027
▁banned	-11.1031
BG	-11.1035
93	-11.1051
turn	-11.1067
▁requiring	-11.1098
▁simultaneous	-11.1098
▁plain	-11.1098
▁Order	-11.11
▁Move	-11.1101
▁III	-11.1105
▁400	-11.1146
ä	-11.1169
▁Current	-11.1169
▁Sunday	-11.1169
▁cornerstone	-11.1169
▁decrease	-11.1169
▁delicate	-11.1169
▁mitigat	-11.1169
▁statistical	-11.1169
▁surplus	-11.1169
▁vaccination	-11.1169
▁essence	-11.1169
▁Home	-11.117
▁alleviat	-11.117
▁owe	-11.1222
▁TACIS	-11.1241
▁Uganda	-11.1241
▁autonomy	-11.1241
▁survey	-11.1241
▁Estonia	-11.1241
▁retail	-11.1241
▁split	-11.1241
▁dollar	-11.1241
Burton	-11.1243
▁profitable	-11.1258
▁catastrophe	-11.1314
▁combination	-11.1314
▁demonstrating	-11.1314
▁fossil	-11.1314
▁nonetheless	-11.1314
▁quantity	-11.1314
▁subsidy	-11.1314
▁1989	-11.1314
▁symbolic	-11.1332
load	-11.1369
▁disgrace	-11.1387
▁Instrument	-11.1387
▁Oettinger	-11.1387
▁Poverty	-11.1387
▁Zimbabwe	-11.1387
▁disrupt	-11.1387
▁slaughter	-11.1387
▁located	-11.1387
▁standardisation	-11.1392
speed	-11.1434
▁PHARE	-11.146
▁Peace	-11.146
▁duplicat	-11.146
▁intolerable	-11.146
▁misunderstand	-11.146
▁denied	-11.146
▁sheep	-11.1461
▁Essen	-11.1461
6%	-11.148
ogue	-11.1481
aught	-11.1486
▁SME	-11.1503
▁towns	-11.1507
▁Roth	-11.1516
▁Certainly	-11.1534
▁Institute	-11.1534
▁Lukashenko	-11.1534
▁composition	-11.1534
▁cooperative	-11.1534
▁2015	-11.1534
▁confuse	-11.1534
▁detention	-11.1534
▁calm	-11.1535
▁complementary	-11.1538
▁hopefully	-11.1546
▁investigat	-11.1556
finance	-11.1583
▁Islam	-11.1604
▁Qui	-11.1606
▁currencies	-11.1609
▁dictate	-11.1609
▁hospital	-11.1609
▁substantive	-11.1609
▁tuberculosis	-11.1609
▁scarce	-11.1609
▁remit	-11.1609
▁minimis	-11.1609
▁biological	-11.161
▁machinery	-11.161
▁write	-11.161
▁delete	-11.1614
▁alert	-11.1617
▁Budget	-11.1672
▁Moroccan	-11.1684
▁circle	-11.1684
▁embark	-11.1684
▁hitherto	-11.1684
▁unresolved	-11.1684
▁incorrect	-11.1684
▁obstruct	-11.1684
▁Finance	-11.1684
▁coincide	-11.1684
▁continual	-11.1684
▁preferred	-11.1686
▁hoc	-11.1693
▁Ecofin	-11.176
▁Hague	-11.176
▁modification	-11.176
▁assembly	-11.176
▁oppress	-11.176
▁everyday	-11.1766
▁recognis	-11.1769
▁quo	-11.1786
▁file	-11.1788
fold	-11.1797
drew	-11.1814
▁Federation	-11.1836
▁Tuesday	-11.1836
▁circulation	-11.1836
▁Foundation	-11.1836
▁cultivat	-11.1836
▁Recent	-11.1836
▁Relations	-11.1836
▁soya	-11.1837
▁Lange	-11.1839
▁managers	-11.1842
▁Part	-11.1842
▁tight	-11.1853
(1)	-11.1881
balance	-11.1887
ultiannual	-11.1912
▁genetic	-11.1913
▁facilitation	-11.1913
▁prescription	-11.1913
▁Delors	-11.1913
▁transformation	-11.1921
hould	-11.1933
▁250	-11.1971
▁OECD	-11.1991
▁appreciation	-11.1991
▁eligibility	-11.1991
▁enthusiasm	-11.1991
▁manipulat	-11.1991
▁victory	-11.1991
▁department	-11.1991
▁suppress	-11.1991
▁pledge	-11.1991
▁film	-11.1991
▁entities	-11.1991
▁household	-11.1991
cultural	-11.2043
▁Global	-11.2068
▁Mauritania	-11.2069
▁excellence	-11.2069
▁reciprocity	-11.2069
▁suspension	-11.2069
▁bail	-11.2069
▁veto	-11.2069
▁cell	-11.2069
▁unrest	-11.2069
▁guidance	-11.2071
▁spring	-11.2074
▁cold	-11.2077
credit	-11.2122
▁aircraft	-11.2148
▁embargo	-11.2148
▁endanger	-11.2148
▁interrupt	-11.2148
▁marriage	-11.2148
▁substitute	-11.2148
▁tabling	-11.2148
▁1991	-11.2148
▁Title	-11.2148
▁steel	-11.2148
▁Islands	-11.2148
just	-11.2197
▁exempt	-11.2203
▁rebuild	-11.2221
US	-11.2225
▁autumn	-11.2227
▁manoeuvre	-11.2227
▁paramount	-11.2227
▁reinforcing	-11.2227
▁conform	-11.2227
▁emotion	-11.2227
▁manifest	-11.2227
▁Campania	-11.2227
▁Malta	-11.2227
▁alliance	-11.2227
▁underpin	-11.2227
▁systematically	-11.2229
▁Against	-11.2229
▁exercis	-11.2234
▁Nepal	-11.2307
▁Criminal	-11.2307
▁Declaration	-11.2307
▁Singapore	-11.2307
▁democracies	-11.2307
▁deterioration	-11.2307
▁liquidity	-11.2307
▁preserving	-11.2307
▁honey	-11.2307
▁communicate	-11.2307
▁km	-11.2308
▁blow	-11.2309
▁caught	-11.231
▁accus	-11.2353
▁envisage	-11.2363
explanatory	-11.2388
▁Executive	-11.2388
▁Lampedusa	-11.2388
▁bridge	-11.2388
▁impartial	-11.2388
▁parliamentarian	-11.2388
▁pipeline	-11.2388
▁drastic	-11.2388
▁occupy	-11.2388
▁expire	-11.2388
▁implies	-11.2388
▁merge	-11.2389
▁repress	-11.2389
▁80%	-11.2391
▁definite	-11.2447
▁ACTA	-11.2469
▁Communist	-11.2469
▁Democracy	-11.2469
▁antibiotic	-11.2469
▁eliminating	-11.2469
▁neoliberal	-11.2469
▁obligatory	-11.2469
▁occupied	-11.2469
▁pattern	-11.2469
▁silence	-11.2469
▁yield	-11.2469
▁desperate	-11.2469
▁generous	-11.2469
▁race	-11.2469
▁interfere	-11.247
▁veterinar	-11.247
▁excess	-11.2472
▁cancer	-11.2473
▁DG	-11.2474
▁dare	-11.2496
▁SAVE	-11.2551
▁arbitrary	-11.2551
▁contributor	-11.2551
▁quantities	-11.2551
6/96	-11.2551
▁intensify	-11.2551
▁relax	-11.2551
▁premise	-11.2551
▁harsh	-11.2551
▁ESF	-11.2552
▁ease	-11.2556
▁wall	-11.256
▁store	-11.2588
2009	-11.2607
▁enlarg	-11.2634
commerce	-11.2634
▁Undertaking	-11.2634
▁capacities	-11.2634
0/96	-11.2634
3/96	-11.2634
9/96	-11.2634
▁hoping	-11.2634
5/96	-11.2634
▁western	-11.2634
▁convert	-11.2634
▁mining	-11.2635
▁scandalous	-11.2637
▁pave	-11.2642
▁emission	-11.2712
▁corpora	-11.2715
▁bankrupt	-11.2717
▁vigorous	-11.2717
▁annex	-11.2717
▁democratisation	-11.2719
▁bold	-11.2722
polluter	-11.2722
▁loud	-11.2725
▁MEP	-11.2789
8/96	-11.2801
roliferation	-11.2801
▁Political	-11.2801
▁availability	-11.2801
▁stimulating	-11.2801
▁surprising	-11.2801
▁wood	-11.2801
▁worried	-11.2801
▁incidentally	-11.2805
decision	-11.2856
▁allocate	-11.2861
▁Canadian	-11.2886
▁appalling	-11.2886
▁contaminated	-11.2886
▁motivated	-11.2886
▁parameters	-11.2886
dvisory	-11.2886
▁displaced	-11.2886
▁precaution	-11.2886
▁remote	-11.2886
▁Lakes	-11.2886
▁characterised	-11.2888
▁Cast	-11.2897
▁frequent	-11.2949
onciliation	-11.2969
▁benchmark	-11.2971
▁calculation	-11.2971
▁evaluating	-11.2971
▁incapable	-11.2971
▁institute	-11.2971
1/96	-11.2971
▁EFD	-11.2971
7/96	-11.2971
▁cruel	-11.2971
▁intense	-11.2972
▁Rocard	-11.2972
▁mental	-11.2979
▁freeze	-11.2982
logical	-11.3049
▁Custom	-11.3057
▁Semester	-11.3057
▁celebrate	-11.3057
▁facility	-11.3057
▁incompatible	-11.3057
▁installations	-11.3057
▁phrase	-11.3057
▁relaunch	-11.3057
▁specified	-11.3057
▁virtue	-11.3057
▁1980	-11.3057
▁borrow	-11.3057
▁famous	-11.3057
2/96	-11.3057
▁minimal	-11.3057
▁viability	-11.3057
▁misuse	-11.3065
▁Balkan	-11.3139
▁fell	-11.3144
▁Yesterday	-11.3144
▁comparative	-11.3144
▁inevitable	-11.3144
▁invitation	-11.3144
▁kilometre	-11.3144
▁outbreak	-11.3144
▁psychological	-11.3144
▁dismiss	-11.3144
▁tuna	-11.3144
▁indirectly	-11.3145
▁contradictory	-11.3145
▁contractual	-11.3148
▁60%	-11.3148
▁painful	-11.3174
efficient	-11.3206
generation	-11.3206
▁Vietnam	-11.3232
▁Congress	-11.3232
▁conjunction	-11.3232
▁council	-11.3232
▁devastating	-11.3232
▁genocide	-11.3232
▁reconsider	-11.3232
▁refusing	-11.3232
▁rigour	-11.3232
▁church	-11.3232
▁defeat	-11.3232
▁2007-2013	-11.3233
▁flagship	-11.3233
▁isolation	-11.3233
▁winner	-11.3234
▁deposit	-11.3282
▁preparat	-11.3298
▁weigh	-11.3303
▁sanction	-11.3318
▁Afghan	-11.3321
▁Kurdish	-11.3321
▁Measures	-11.3321
▁convincing	-11.3321
▁hunger	-11.3321
▁measuring	-11.3321
▁senior	-11.3321
▁speculative	-11.3321
▁residu	-11.3321
▁fruitful	-11.3326
▁penal	-11.3363
▁compare	-11.3385
▁weapon	-11.3409
▁fragmentation	-11.341
▁recipient	-11.341
▁resettlement	-11.341
▁striking	-11.341
▁tractors	-11.341
▁bottom	-11.341
▁innocent	-11.341
▁jeopardise	-11.341
▁vague	-11.341
▁insult	-11.3411
/95	-11.3411
▁occurring	-11.3412
▁alarm	-11.345
▁penalise	-11.3456
▁Colombia	-11.35
▁Liechtenstein	-11.35
▁cautious	-11.35
▁feasible	-11.35
▁hypocrisy	-11.35
▁prerogative	-11.35
▁resolute	-11.35
▁separation	-11.35
▁typical	-11.35
integrating	-11.35
▁branch	-11.35
▁gift	-11.35
▁diagnosis	-11.3501
▁readmission	-11.3503
▁Yugoslav	-11.3566
▁assumption	-11.3591
▁creativity	-11.3591
▁moratorium	-11.3591
▁philosophy	-11.3591
▁rehabilitation	-11.3591
▁scourge	-11.3591
▁Defence	-11.3591
▁Fifth	-11.3591
▁compel	-11.3591
▁sick	-11.3592
▁standpoint	-11.3593
▁transmission	-11.3595
▁generating	-11.3683
▁paradox	-11.3683
▁profile	-11.3683
▁quantitative	-11.3683
▁ridiculous	-11.3683
▁salaries	-11.3683
▁supplied	-11.3683
4/96	-11.3683
▁impunity	-11.3683
▁Paris	-11.3683
▁scrap	-11.3684
nyone	-11.3694
▁contradict	-11.3749
▁ignor	-11.3751
▁Christmas	-11.3775
▁discriminate	-11.3775
▁navigation	-11.3775
▁relief	-11.3775
▁salmon	-11.3775
▁unrealistic	-11.3775
▁reputation	-11.3775
▁storm	-11.3775
▁domain	-11.3775
▁veal	-11.3776
▁Dayton	-11.3776
▁inspect	-11.3833
▁devote	-11.3844
▁born	-11.3851
value	-11.3851
▁August	-11.3869
▁Barcelona	-11.3869
▁Swiss	-11.3869
▁fortunate	-11.3869
▁opponents	-11.3869
▁purchasing	-11.3869
▁supranational	-11.3869
▁website	-11.3869
▁hatred	-11.3869
▁immense	-11.3869
▁Concern	-11.3869
▁Support	-11.3869
▁Rehn	-11.3869
▁liais	-11.3869
▁Media	-11.3869
(3)	-11.3929
▁Communities	-11.3963
▁Guinea	-11.3963
▁MEDA	-11.3963
▁authoritarian	-11.3963
▁intermediate	-11.3963
▁university	-11.3963
▁vigilant	-11.3963
▁bigger	-11.3963
▁river	-11.3963
▁fix	-11.4024
▁migrat	-11.4053
▁Caucasus	-11.4058
▁Network	-11.4058
▁Orbán	-11.4058
▁certification	-11.4058
▁clash	-11.4058
▁embryo	-11.4058
▁phenomena	-11.4058
▁struggling	-11.4058
▁Next	-11.4058
▁curb	-11.4058
▁codification	-11.4058
▁echo	-11.4058
▁horse	-11.4058
▁dark	-11.4058
▁ruin	-11.4058
▁render	-11.4059
modal	-11.4091
competitive	-11.4128
4-04	-11.4154
▁Cambodia	-11.4154
▁Communication	-11.4154
▁Further	-11.4154
▁Mechanism	-11.4154
▁commodity	-11.4154
▁consolidating	-11.4154
▁dependency	-11.4154
▁reintroduc	-11.4154
▁unsatisfactory	-11.4154
▁wheel	-11.4154
▁encompass	-11.4154
▁holiday	-11.4154
▁intolerance	-11.4154
▁switch	-11.4154
▁unclear	-11.4154
▁excise	-11.4154
▁freight	-11.4154
▁repair	-11.4154
▁duration	-11.4154
▁accomplish	-11.4155
▁Martin	-11.4155
▁imbalance	-11.4168
burn	-11.419
▁Renault	-11.4251
▁abortion	-11.4251
▁continuity	-11.4251
▁equity	-11.4251
▁monopolies	-11.4251
▁suspicion	-11.4251
▁moderate	-11.4251
▁massacre	-11.4251
▁warrant	-11.4251
ALE	-11.4252
▁Combat	-11.4252
▁score	-11.4253
NU	-11.4334
▁Tibet	-11.4345
▁redistribut	-11.4349
▁academic	-11.4349
▁cooperating	-11.4349
▁dominant	-11.4349
▁explore	-11.4349
▁loophole	-11.4349
(96)0	-11.4349
▁Cairo	-11.4349
▁guardian	-11.4349
▁caution	-11.435
▁ITER	-11.435
▁scene	-11.435
▁infring	-11.435
▁Berlin	-11.4354
▁finger	-11.4358
keeping	-11.4422
▁terror	-11.4434
NGL	-11.4448
grassroots	-11.4448
▁Füle	-11.4448
▁Lebanon	-11.4448
▁Malaysia	-11.4448
▁Seychelles	-11.4448
▁aggressive	-11.4448
▁commodities	-11.4448
▁diversification	-11.4448
▁fashion	-11.4448
▁knew	-11.4448
▁liberty	-11.4448
▁municipal	-11.4448
▁verify	-11.4448
▁diminish	-11.4449
▁enrich	-11.4449
▁visibility	-11.4449
▁hamper	-11.4449
▁Access	-11.4449
▁luck	-11.4449
▁Terr	-11.4452
▁overlap	-11.4454
esumption	-11.4456
▁livelihood	-11.4548
▁Agricultural	-11.4549
▁Helms	-11.4549
▁calculate	-11.4549
▁divorce	-11.4549
▁infection	-11.4549
▁plenty	-11.4549
▁worthwhile	-11.4549
▁breath	-11.4549
▁Monitor	-11.4549
▁multiple	-11.4549
▁absent	-11.4549
MFF	-11.455
▁mini	-11.4589
▁liberalis	-11.461
▁consume	-11.4638
▁Front	-11.4649
▁Caribbean	-11.465
▁GATT	-11.465
▁GUE	-11.465
▁Madeira	-11.465
▁Malmström	-11.465
▁Refugee	-11.465
▁Sarajevo	-11.465
▁Whilst	-11.465
▁completing	-11.465
▁departure	-11.465
▁eligible	-11.465
▁negotiator	-11.465
▁refrain	-11.465
▁rhetoric	-11.465
▁tendency	-11.465
limit	-11.4659
▁flee	-11.4707
structure	-11.4725
▁milita	-11.4751
▁Heritage	-11.4752
▁Product	-11.4752
▁cloning	-11.4752
▁comitology	-11.4752
▁description	-11.4752
▁geopolitical	-11.4752
▁relevance	-11.4752
▁wholeheartedly	-11.4752
▁David	-11.4752
▁administer	-11.4752
▁accusations	-11.4752
▁reviv	-11.476
euro	-11.4764
▁soft	-11.4775
▁Mitchell	-11.4855
▁NAFO	-11.4855
▁Papua	-11.4855
▁Personally	-11.4855
▁affirm	-11.4855
▁comprise	-11.4855
▁deficiencies	-11.4855
▁opposing	-11.4855
▁pandemic	-11.4855
▁pricing	-11.4855
▁qualitative	-11.4855
▁upheld	-11.4855
▁regain	-11.4855
▁memory	-11.4855
▁Surely	-11.4855
▁wild	-11.4855
gged	-11.4857
public	-11.4931
▁ratio	-11.495
parent	-11.4952
#	-11.4959
▁Nigeria	-11.4959
▁advocating	-11.4959
▁ballot	-11.4959
▁conscious	-11.4959
▁conservative	-11.4959
▁girls	-11.4959
▁prosecution	-11.4959
▁racist	-11.4959
▁reciprocal	-11.4959
▁rigid	-11.4959
▁straightforward	-11.4959
▁broadband	-11.4959
▁specify	-11.4959
▁Brok	-11.4959
▁distinct	-11.5053
NACE	-11.5064
▁Besides	-11.5064
▁Finnish	-11.5064
▁Galileo	-11.5064
▁Győri	-11.5064
▁ambassador	-11.5064
▁architecture	-11.5064
▁evolution	-11.5064
▁indicating	-11.5064
▁preferential	-11.5064
▁teachers	-11.5064
▁Particular	-11.5064
▁emergence	-11.5064
▁summary	-11.5064
▁illusion	-11.5064
▁imposition	-11.5064
▁steer	-11.5065
entrepreneurship	-11.5065
▁gene	-11.5069
▁indicator	-11.5096
▁trace	-11.517
▁tailor	-11.517
▁Christodoulou	-11.517
▁Division	-11.517
▁Initiative	-11.517
▁Together	-11.517
▁Whether	-11.517
▁prudent	-11.517
▁redress	-11.517
▁Herman	-11.517
▁rush	-11.5171
▁inherent	-11.5171
Maritime	-11.5171
▁nice	-11.5171
▁limitations	-11.5172
pressed	-11.5223
▁basin	-11.5236
CAP	-11.5252
▁oblige	-11.5253
valuation	-11.5276
▁Profess	-11.5278
▁Armenia	-11.5278
▁Meanwhile	-11.5278
▁Supervisor	-11.5278
▁Tribunal	-11.5278
▁clarified	-11.5278
▁silent	-11.5278
▁subscribe	-11.5278
▁Section	-11.5278
▁organic	-11.5278
dominated	-11.5278
Bendit	-11.5278
social	-11.5361
▁dispos	-11.5368
teroperability	-11.5387
▁Cameroon	-11.5387
▁ECSC	-11.5387
▁calendar	-11.5387
▁chaos	-11.5387
▁extradition	-11.5387
▁influenza	-11.5387
▁pronounce	-11.5387
▁provoke	-11.5387
▁responsibly	-11.5387
▁unwilling	-11.5387
▁Cohn	-11.5387
▁addiction	-11.5387
▁cyber	-11.5387
▁phone	-11.5387
▁entity	-11.5387
East	-11.5471
▁Flynn	-11.5497
▁sensitivity	-11.5497
▁Label	-11.5497
▁readiness	-11.5497
▁Rather	-11.5497
▁uprising	-11.5497
▁beekeeping	-11.5497
▁acute	-11.5497
▁weather	-11.5497
▁Slovak	-11.5522
▁worry	-11.5557
ñ	-11.5608
▁Fortunately	-11.5608
▁Jordan	-11.5608
▁Lanka	-11.5608
▁Palestine	-11.5608
▁Scandinavia	-11.5608
▁discourage	-11.5608
▁dubious	-11.5608
▁mobilising	-11.5608
▁nominat	-11.5608
▁migrant	-11.5652
tect	-11.5654
rapporteur	-11.5694
▁machine	-11.5719
ă	-11.572
▁AIDS	-11.572
▁Simpson	-11.572
▁Specific	-11.572
▁Turning	-11.572
▁correlation	-11.572
▁dioxide	-11.572
▁discretion	-11.572
▁dismantling	-11.572
▁equitable	-11.572
▁injustice	-11.572
▁memorandum	-11.572
▁Timor	-11.572
▁interaction	-11.572
▁pretend	-11.572
▁quiet	-11.572
▁parental	-11.572
▁brave	-11.5721
▁boats	-11.5721
▁Camp	-11.5722
power	-11.5808
▁organize	-11.5809
tabilisation	-11.5811
▁corrupt	-11.5829
burg	-11.5831
è	-11.5834
"	-11.5834
▁Australia	-11.5834
▁ECOFIN	-11.5834
▁Fontaine	-11.5834
▁History	-11.5834
▁Neither	-11.5834
▁Police	-11.5834
▁clothing	-11.5834
▁impressive	-11.5834
▁influx	-11.5834
▁liberties	-11.5834
▁prosperous	-11.5834
▁serving	-11.5834
▁reimbursement	-11.5834
▁Three	-11.5834
▁Nobel	-11.5834
▁supervise	-11.5835
▁barrier	-11.5883
board	-11.5922
metric	-11.5932
▁chose	-11.5936
▁collaborat	-11.5944
▁Chapter	-11.5949
▁Oostlander	-11.5949
▁fragmented	-11.5949
▁identical	-11.5949
▁incredible	-11.5949
▁screen	-11.5949
▁proportionality	-11.5949
▁traffickers	-11.5949
4-05	-11.5949
▁freezing	-11.5949
▁prize	-11.5949
(95)0	-11.6065
▁Gauzès	-11.6065
▁Resolution	-11.6065
▁Sakharov	-11.6065
▁deadlock	-11.6065
▁envoy	-11.6065
▁hectare	-11.6065
▁prosecute	-11.6065
▁rank	-11.6065
▁engineering	-11.6065
▁leak	-11.6065
▁destabilis	-11.6101
rban	-11.6102
High	-11.6156
▁Moscow	-11.6183
▁breakthrough	-11.6183
▁harvest	-11.6183
▁spark	-11.6183
▁synergy	-11.6183
▁unsustainable	-11.6183
▁accede	-11.6183
▁expectancy	-11.6183
▁injured	-11.6183
▁Staff	-11.6183
▁anxious	-11.6183
▁evil	-11.6183
▁fertil	-11.6183
▁Revisi	-11.6215
ecurities	-11.626
worthy	-11.6275
▁capita	-11.6296
▁absorb	-11.6302
▁Mexico	-11.6302
▁analysing	-11.6302
▁centuries	-11.6302
▁harmonious	-11.6302
▁privatisation	-11.6302
▁prominent	-11.6302
▁coalition	-11.6302
▁generic	-11.6302
▁promising	-11.6302
▁revitalis	-11.6302
▁utilise	-11.6302
▁wetlands	-11.6302
▁spare	-11.6331
▁reproduc	-11.6384
▁hazard	-11.642
▁challenging	-11.6422
▁childcare	-11.6422
▁deliberations	-11.6422
▁frozen	-11.6422
▁jeopardiz	-11.6422
▁mortality	-11.6422
▁pornography	-11.6422
▁propaganda	-11.6422
▁slavery	-11.6422
▁striving	-11.6422
▁chief	-11.6422
▁fraudulent	-11.6422
▁sugar	-11.6422
▁Gender	-11.6422
liberal	-11.6518
ESMA	-11.6544
GNSS	-11.6544
▁Sarkozy	-11.6544
▁beneficiary	-11.6544
▁childhood	-11.6544
▁coordinator	-11.6544
▁feasibility	-11.6544
▁mackerel	-11.6544
▁premature	-11.6544
▁proactive	-11.6544
▁statutor	-11.6544
▁fibre	-11.6544
▁Climat	-11.6544
▁soldiers	-11.6544
▁econom	-11.6544
▁assuming	-11.6544
▁Broek	-11.6667
▁Competitiveness	-11.6667
▁Garriga	-11.6667
▁Scientific	-11.6667
▁Tajani	-11.6667
▁allegations	-11.6667
▁biomass	-11.6667
▁disarmament	-11.6667
▁intimidation	-11.6667
▁paternity	-11.6667
▁unequal	-11.6667
▁unusual	-11.6667
▁virus	-11.6667
▁revising	-11.6668
developed	-11.6766
group	-11.6766
▁Again	-11.6789
▁Collins	-11.6792
▁Mubarak	-11.6792
▁Velzen	-11.6792
▁educate	-11.6792
▁entitlement	-11.6792
▁evolve	-11.6792
▁expulsion	-11.6792
▁incurred	-11.6792
▁modify	-11.6792
▁pregnant	-11.6792
▁presidencies	-11.6792
▁uncontroll	-11.6792
▁wrote	-11.6792
▁Good	-11.6792
▁organising	-11.6792
▁stood	-11.6792
▁unambiguous	-11.6792
▁Wolf	-11.6792
▁reliability	-11.6792
▁Spring	-11.6793
▁urging	-11.6793
▁Medicines	-11.6919
▁bottle	-11.6919
▁gratitude	-11.6919
▁nonsense	-11.6919
▁pocket	-11.6919
▁province	-11.6919
▁radiation	-11.6919
▁shaping	-11.6919
▁vacuum	-11.6919
▁varied	-11.6919
▁blatant	-11.6919
▁husband	-11.6919
▁Dalli	-11.6919
▁Everything	-11.6919
clock	-11.6921
▁differentiate	-11.6929
onsultative	-11.7
Russia	-11.7021
oluntary	-11.7046
▁Gollnisch	-11.7047
▁Wijsenbeek	-11.7047
▁bargaining	-11.7047
▁blasphemy	-11.7047
▁demonstrators	-11.7047
▁imprisonment	-11.7047
▁leghold	-11.7047
-96/0	-11.7047
▁strain	-11.7047
▁ultra	-11.7047
GDP	-11.7151
▁mountain	-11.7177
▁Lomé	-11.7177
▁Mugabe	-11.7177
▁competing	-11.7177
▁condolences	-11.7177
▁electorate	-11.7177
▁interconnection	-11.7177
▁leap	-11.7177
▁qualify	-11.7177
▁severity	-11.7177
▁tsunami	-11.7177
▁utilisation	-11.7177
▁violating	-11.7177
▁recast	-11.7177
▁behave	-11.7177
DCI	-11.7178
sembl	-11.7194
employed	-11.7279
Youth	-11.7283
▁waiv	-11.7301
WEEE	-11.7309
▁Bertens	-11.7309
▁England	-11.7309
▁Merkel	-11.7309
▁adjourned	-11.7309
▁arguing	-11.7309
▁choosing	-11.7309
▁gelatine	-11.7309
▁mainstream	-11.7309
▁overview	-11.7309
▁populist	-11.7309
▁ticket	-11.7309
▁unregulated	-11.7309
-95/0	-11.7309
▁verification	-11.7309
▁Sometimes	-11.7309
▁proving	-11.7309
▁defect	-11.7313
producing	-11.7326
dependent	-11.736
member	-11.741
▁Asylum	-11.7442
▁Children	-11.7442
▁Nobody	-11.7442
▁Official	-11.7442
▁Transparency	-11.7442
▁accommodate	-11.7442
▁arriving	-11.7442
▁compatibility	-11.7442
▁fabric	-11.7442
▁recourse	-11.7442
▁thrust	-11.7442
▁Racism	-11.7442
▁levy	-11.7442
▁elite	-11.7442
TFEU	-11.7442
▁Peter	-11.7443
▁elect	-11.7537
Saharan	-11.7566
▁League	-11.7577
▁Tindemans	-11.7577
▁Training	-11.7577
▁Verhofstadt	-11.7577
▁bluetongue	-11.7577
▁certificate	-11.7577
▁clinical	-11.7577
▁divergence	-11.7577
▁evasion	-11.7577
▁forefront	-11.7577
▁frustration	-11.7577
▁hidden	-11.7577
▁juncture	-11.7577
▁temporarily	-11.7577
▁tribunal	-11.7577
▁twelve	-11.7577
▁volcan	-11.7577
▁1986	-11.7577
▁Funk	-11.7577
▁hesitate	-11.7577
▁likewise	-11.7577
▁mineral	-11.7577
▁Robert	-11.7577
residing	-11.7582
▁engag	-11.7652
onourable	-11.7685
▁aggravat	-11.7714
▁Banana	-11.7714
▁Capital	-11.7714
▁Polledo	-11.7714
▁drift	-11.7714
▁escalation	-11.7714
▁execute	-11.7714
▁exemplary	-11.7714
▁incidence	-11.7714
▁incorporating	-11.7714
▁observance	-11.7714
▁obsolete	-11.7714
▁paedophile	-11.7714
▁tendencies	-11.7714
▁unjustified	-11.7714
Schmid	-11.7714
▁charter	-11.7714
▁empower	-11.7714
▁ideology	-11.7714
▁rethink	-11.7714
product	-11.7772
▁vessel	-11.7812
▁regulator	-11.7843
eterinar	-11.7852
▁frame	-11.7853
balancing	-11.7853
▁Countries	-11.7853
▁Kazakhstan	-11.7853
▁Learning	-11.7853
▁advisable	-11.7853
▁biofuel	-11.7853
▁biotechnology	-11.7853
▁equilibrium	-11.7853
▁semester	-11.7853
▁smuggling	-11.7853
▁steadily	-11.7853
▁totalitarian	-11.7853
▁John	-11.7853
▁gesture	-11.7853
▁harmony	-11.7853
▁Operation	-11.7853
▁salary	-11.7853
▁grasp	-11.7853
▁reimburs	-11.7994
▁Addiction	-11.7994
▁Chancellor	-11.7994
▁Ferreira	-11.7994
▁altogether	-11.7994
▁champion	-11.7994
▁charging	-11.7994
▁herself	-11.7994
▁indicative	-11.7994
▁secretariat	-11.7994
▁unchanged	-11.7994
▁phasing	-11.7994
▁Lulling	-11.7994
minded	-11.8045
tariff	-11.8111
WTO	-11.8111
stepped	-11.812
EGNOS	-11.8137
▁1970	-11.8137
▁accommodation	-11.8137
▁aforementioned	-11.8137
▁arrival	-11.8137
▁devastated	-11.8137
▁hydro	-11.8137
▁inconsistent	-11.8137
▁landscape	-11.8137
▁optimum	-11.8137
▁reluctant	-11.8137
▁sentiment	-11.8137
▁Gucht	-11.8137
▁Cross	-11.8137
▁qualification	-11.8247
Community	-11.8256
GFCM	-11.8282
▁Consensus	-11.8282
▁Eurovignette	-11.8282
▁Hänsch	-11.8282
▁Scottish	-11.8282
▁Ultimately	-11.8282
▁apologise	-11.8282
▁auspices	-11.8282
▁concentrating	-11.8282
▁derivatives	-11.8282
▁frequency	-11.8282
▁incorporation	-11.8282
▁lagging	-11.8282
▁practitioners	-11.8282
▁predecessor	-11.8282
▁reorganiz	-11.8282
▁replies	-11.8282
▁speculators	-11.8282
▁attentive	-11.8282
▁ENP	-11.8282
▁lodge	-11.8282
▁Georgi	-11.8314
▁Democrat	-11.8391
▁resume	-11.8404
+	-11.8429
▁advertise	-11.8429
▁Lannoye	-11.8429
▁anybody	-11.8429
▁backbone	-11.8429
▁communautaire	-11.8429
▁declining	-11.8429
▁exposure	-11.8429
▁mobiliz	-11.8429
▁stimulus	-11.8429
▁theoretical	-11.8429
▁wisdom	-11.8429
▁allocating	-11.8429
▁fusion	-11.8429
▁shelter	-11.8429
ocracy	-11.8434
existent	-11.8471
food	-11.8552
▁Nordmann	-11.8578
▁Violence	-11.8578
▁Wogau	-11.8578
▁cancellation	-11.8578
▁colonial	-11.8578
▁deterrent	-11.8578
▁explosion	-11.8578
compliance	-11.8703
territorial	-11.8703
etween	-11.8728
[	-11.873
▁Erasmus	-11.873
▁Gbagbo	-11.873
▁WHO	-11.873
▁aggression	-11.873
▁calves	-11.873
▁deteriorating	-11.873
▁emphatically	-11.873
▁excluding	-11.873
▁graduat	-11.873
▁identifies	-11.873
▁mankind	-11.873
▁nowadays	-11.873
▁offensive	-11.873
▁studied	-11.873
▁undeniabl	-11.873
▁village	-11.873
▁wheat	-11.873
▁PSE	-11.873
▁York	-11.873
▁hypocritical	-11.873
▁occurrence	-11.873
▁Speak	-11.873
▁justifies	-11.873
▁immigrant	-11.8858
▁associate	-11.8859
▁illustr	-11.8868
š	-11.8883
▁Delegation	-11.8883
▁Likewise	-11.8883
▁Maghreb	-11.8883
▁automotive	-11.8883
▁catalyst	-11.8883
▁default	-11.8883
▁dismantle	-11.8883
▁entrepreneurial	-11.8883
▁ethics	-11.8883
▁imprisoned	-11.8883
▁observatory	-11.8883
▁splendid	-11.8883
▁surrender	-11.8883
▁variable	-11.8883
▁unconditional	-11.8883
▁compile	-11.8883
regulation	-11.9009
financial	-11.9013
EMCDDA	-11.904
disciplinary	-11.904
ł	-11.904
ş	-11.904
▁Battisti	-11.904
▁Cornelissen	-11.904
▁Gebhardt	-11.904
▁Medina	-11.904
▁Taliban	-11.904
▁abstention	-11.904
▁comfort	-11.904
▁deforestation	-11.904
▁destructive	-11.904
▁earliest	-11.904
▁gallery	-11.904
▁intensified	-11.904
▁seminar	-11.904
▁signatories	-11.904
▁temptation	-11.904
▁upheaval	-11.904
▁cynical	-11.904
▁proclaim	-11.904
▁regrettably	-11.904
▁worries	-11.904
▁categorical	-11.904
▁activate	-11.9041
▁acknowledg	-11.9062
Africa	-11.9172
respect	-11.9172
mplementation	-11.9198
▁horizon	-11.9198
sufficiency	-11.9198
▁Brittan	-11.9198
▁Competition	-11.9198
▁Eritrea	-11.9198
▁Management	-11.9198
]	-11.936
ã	-12.0568
ė	-12.1134
â	-12.1734
ć	-12.3055
č	-12.3537
ß	-12.4043
ç	-12.4306
ń	-12.4306
ø	-12.4855
°	-12.514
Z	-12.5711
Á	-12.5737
æ	-12.7051
$	-12.7408
ê	-12.7778
•	-12.7778
ú	-12.9414
”	-13.0345
Č	-13.0845
ę	-13.1371
ò	-13.2515
ô	-13.314
Τ	-13.314
ž	-13.4521
ì	-13.529
ř	-13.529
ū	-13.529
Ø	-13.6124
ő	-13.6124
Α	-13.7033
а	-13.7033
=	-13.9143
ë	-13.9144
о	-13.9144
Ö	-13.9144
е	-14.0394
ţ	-14.0394
@	-14.1822
ś	-14.1822
т	-14.1822
_	-14.1822
ī	-14.3489
É	-14.3489
с	-14.3489
ą	-14.5489
ρ	-14.7989
α	-14.7989
τ	-14.7989
р	-14.7989
в	-14.7989
и	-14.7989
ż	-15.1322
Ο	-15.1322
к	-15.1322
ч	-15.1322
ш	-15.1322
ź	-15.1322
л	-15.1322
Β	-15.6322
\	-15.6322
§	-15.6322
ľ	-15.6322
ņ	-15.6322
ș	-15.6322
й	-15.6322
у	-15.6322
я	-15.6322
ь	-15.6322
з	-16.6295
ʻ	-16.6296
Ő	-16.6297
Ł	-16.6298
û	-16.6299
χ	-16.63
ο	-16.6301
ή	-16.6302
έ	-16.6303
ά	-16.6304
Υ	-16.6305
Κ	-16.6306
ǎ	-16.6307
ı	-16.6308
ň	-16.6309
н	-16.631
π	-16.6311
ý	-16.6312
å	-16.6313
Ş	-16.6314
Đ	-16.6315
€	-16.6316
Ţ	-16.6317
ğ	-16.6318
£	-16.6319
Ç	-16.632
ï	-16.6321
ί	-16.6322
ε	-16.6322
κ	-16.6322
ν	-16.6322
П	-16.6322
Ü	-16.6322
Ś	-16.6322
д	-16.6322
*	-16.6322
Å	-16.6322
Ð	-16.6322
Ó	-16.6322
ā	-16.6322
Ε	-16.6322
Ν	-16.6322
γ	-16.6322
ι	-16.6322
Н	-16.6322
О	-16.6322
Т	-16.6322
г	-16.6322
ж	-16.6322
м	-16.6322
п	-16.6322
ы	-16.6322
¡	-16.6322
õ	-16.6322
ē	-16.6322
ō	-16.6322
Ć	-16.6322
ď	-16.6322
Š	-16.6322
